{
  "version": "1.0",
  "truncation": null,
  "padding": null,
  "added_tokens": [
    {
      "id": 0,
      "content": "<PAD>",
      "single_word": false,
      "lstrip": false,
      "rstrip": false,
      "normalized": false,
      "special": true
    },
    {
      "id": 1,
      "content": "<UNK>",
      "single_word": false,
      "lstrip": false,
      "rstrip": false,
      "normalized": false,
      "special": true
    },
    {
      "id": 2,
      "content": "<SOS>",
      "single_word": false,
      "lstrip": false,
      "rstrip": false,
      "normalized": false,
      "special": true
    },
    {
      "id": 3,
      "content": "<EOS>",
      "single_word": false,
      "lstrip": false,
      "rstrip": false,
      "normalized": false,
      "special": true
    }
  ],
  "normalizer": null,
  "pre_tokenizer": {
    "type": "ByteLevel",
    "add_prefix_space": false,
    "trim_offsets": true,
    "use_regex": true
  },
  "post_processor": null,
  "decoder": {
    "type": "ByteLevel",
    "add_prefix_space": true,
    "trim_offsets": true,
    "use_regex": true
  },
  "model": {
    "type": "BPE",
    "dropout": null,
    "unk_token": "<UNK>",
    "continuing_subword_prefix": null,
    "end_of_word_suffix": null,
    "fuse_unk": false,
    "byte_fallback": false,
    "ignore_merges": false,
    "vocab": {
      "<PAD>": 0,
      "<UNK>": 1,
      "<SOS>": 2,
      "<EOS>": 3,
      "!": 4,
      "\"": 5,
      "#": 6,
      "$": 7,
      "%": 8,
      "&": 9,
      "'": 10,
      "(": 11,
      ")": 12,
      "*": 13,
      "+": 14,
      ",": 15,
      "-": 16,
      ".": 17,
      "/": 18,
      "0": 19,
      "1": 20,
      "2": 21,
      "3": 22,
      "4": 23,
      "5": 24,
      "6": 25,
      "7": 26,
      "8": 27,
      "9": 28,
      ":": 29,
      ";": 30,
      "<": 31,
      "=": 32,
      ">": 33,
      "?": 34,
      "@": 35,
      "A": 36,
      "B": 37,
      "C": 38,
      "D": 39,
      "E": 40,
      "F": 41,
      "G": 42,
      "H": 43,
      "I": 44,
      "J": 45,
      "K": 46,
      "L": 47,
      "M": 48,
      "N": 49,
      "O": 50,
      "P": 51,
      "Q": 52,
      "R": 53,
      "S": 54,
      "T": 55,
      "U": 56,
      "V": 57,
      "W": 58,
      "X": 59,
      "Y": 60,
      "Z": 61,
      "[": 62,
      "\\": 63,
      "]": 64,
      "^": 65,
      "_": 66,
      "`": 67,
      "a": 68,
      "b": 69,
      "c": 70,
      "d": 71,
      "e": 72,
      "f": 73,
      "g": 74,
      "h": 75,
      "i": 76,
      "j": 77,
      "k": 78,
      "l": 79,
      "m": 80,
      "n": 81,
      "o": 82,
      "p": 83,
      "q": 84,
      "r": 85,
      "s": 86,
      "t": 87,
      "u": 88,
      "v": 89,
      "w": 90,
      "x": 91,
      "y": 92,
      "z": 93,
      "{": 94,
      "|": 95,
      "}": 96,
      "~": 97,
      "¡": 98,
      "¢": 99,
      "£": 100,
      "¤": 101,
      "¥": 102,
      "¦": 103,
      "§": 104,
      "¨": 105,
      "©": 106,
      "ª": 107,
      "«": 108,
      "¬": 109,
      "®": 110,
      "¯": 111,
      "°": 112,
      "±": 113,
      "²": 114,
      "³": 115,
      "´": 116,
      "µ": 117,
      "¶": 118,
      "·": 119,
      "¸": 120,
      "¹": 121,
      "º": 122,
      "»": 123,
      "¼": 124,
      "½": 125,
      "¾": 126,
      "¿": 127,
      "Â": 128,
      "Ã": 129,
      "Ë": 130,
      "Î": 131,
      "Ï": 132,
      "Ø": 133,
      "Ù": 134,
      "â": 135,
      "ã": 136,
      "ä": 137,
      "å": 138,
      "æ": 139,
      "ç": 140,
      "è": 141,
      "é": 142,
      "ï": 143,
      "ð": 144,
      "ĉ": 145,
      "Ċ": 146,
      "č": 147,
      "Ġ": 148,
      "Ģ": 149,
      "ģ": 150,
      "Ĥ": 151,
      "ĥ": 152,
      "Ħ": 153,
      "ħ": 154,
      "Ĩ": 155,
      "ĩ": 156,
      "Ī": 157,
      "ī": 158,
      "Ĭ": 159,
      "ĭ": 160,
      "Į": 161,
      "į": 162,
      "İ": 163,
      "ı": 164,
      "Ĳ": 165,
      "ĳ": 166,
      "Ĵ": 167,
      "ĵ": 168,
      "Ķ": 169,
      "ķ": 170,
      "ĸ": 171,
      "Ĺ": 172,
      "ĺ": 173,
      "Ļ": 174,
      "ļ": 175,
      "Ľ": 176,
      "ľ": 177,
      "Ŀ": 178,
      "ŀ": 179,
      "Ł": 180,
      "ł": 181,
      "Ń": 182,
      "ĠĠ": 183,
      "ĠĠĠĠ": 184,
      "ĠĠĠĠĠĠĠĠ": 185,
      "ĠĠĠ": 186,
      "in": 187,
      "ĊĠĠĠĠĠĠĠĠ": 188,
      "se": 189,
      "on": 190,
      "re": 191,
      "ĠĠĠĠĠĠĠ": 192,
      "at": 193,
      "de": 194,
      "me": 195,
      "ĊĠĠĠĠĠĠĠ": 196,
      "Ġ=": 197,
      "or": 198,
      "er": 199,
      "st": 200,
      "Ġt": 201,
      "ar": 202,
      "al": 203,
      "Ġi": 204,
      "ĠĠĠĠĠĠĠĠĠĠĠĠĠĠĠĠ": 205,
      "en": 206,
      "ti": 207,
      "Ġn": 208,
      "ĊĠĠĠĠĠĠĠĠĠĠĠ": 209,
      "co": 210,
      "an": 211,
      "ĊĠĠĠ": 212,
      "le": 213,
      "ame": 214,
      "sel": 215,
      "self": 216,
      "Ġf": 217,
      "Ġre": 218,
      "he": 219,
      "tion": 220,
      "ur": 221,
      "un": 222,
      "Ġin": 223,
      "pe": 224,
      "ce": 225,
      "Ġp": 226,
      "Ġa": 227,
      "ut": 228,
      "ro": 229,
      "Ġif": 230,
      "lo": 231,
      "Ġc": 232,
      "ge": 233,
      "):": 234,
      "Ġe": 235,
      "it": 236,
      "Ġs": 237,
      "ra": 238,
      "ue": 239,
      "Ġself": 240,
      "ing": 241,
      "ate": 242,
      "ction": 243,
      "Ġ#": 244,
      "Ġd": 245,
      "Ġo": 246,
      "li": 247,
      "urn": 248,
      "turn": 249,
      "code": 250,
      "la": 251,
      "ĊĠĠĠĠĠĠĠĠĠĠĠĠĠĠĠ": 252,
      "ct": 253,
      "Ġname": 254,
      "def": 255,
      "Ġreturn": 256,
      "Ġb": 257,
      "val": 258,
      "am": 259,
      "si": 260,
      "ma": 261,
      "Ġthe": 262,
      "ot": 263,
      "one": 264,
      "ype": 265,
      "ĊĠĠĠĠĠĠĠĠĠĠĠĠĠĠĠĠĠĠĠĠĠĠĠĠ": 266,
      "Ġw": 267,
      "di": 268,
      "ata": 269,
      "unction": 270,
      "ad": 271,
      "ch": 272,
      "._": 273,
      "and": 274,
      "um": 275,
      "Ġis": 276,
      "fi": 277,
      "None": 278,
      "par": 279,
      "Ġfor": 280,
      "function": 281,
      "ĊĠĠĠĠĠĠĠĠĠĠĠĠĠĠĠĠ": 282,
      "id": 283,
      "ri": 284,
      "get": 285,
      "ul": 286,
      "ck": 287,
      "name": 288,
      "ed": 289,
      "()": 290,
      "is": 291,
      "Ġm": 292,
      "nt": 293,
      "ha": 294,
      "el": 295,
      "th": 296,
      "ĊĠ": 297,
      "Ġto": 298,
      "value": 299,
      "ss": 300,
      "ex": 301,
      "type": 302,
      "Ġst": 303,
      "es": 304,
      "ke": 305,
      "))": 306,
      "put": 307,
      "ati": 308,
      "ter": 309,
      "ĠĠĠĠĠ": 310,
      "Ġ_": 311,
      "Ġ'": 312,
      "Ġnot": 313,
      "to": 314,
      "param": 315,
      "len": 316,
      "arg": 317,
      "ĊĊĠĠĠĠĠĠĠ": 318,
      "Ġ(": 319,
      "Ġ\"": 320,
      "ze": 321,
      "ath": 322,
      "set": 323,
      "Ġ[": 324,
      "up": 325,
      "Ġco": 326,
      "Ġh": 327,
      "con": 328,
      "ĠNone": 329,
      "ver": 330,
      "ode": 331,
      "mp": 332,
      "params": 333,
      "ation": 334,
      "ĊĠĠĠĠĠĠĠĠĠĠĠĠĠĠĠĠĠĠĠĠĠĠĠĠĠĠĠĠĠĠĠĠĠĠĠĠĠĠĠĠ": 335,
      "res": 336,
      "ab": 337,
      "Ġex": 338,
      "tr": 339,
      "as": 340,
      "end": 341,
      "Ġ1": 342,
      "ĊĊĠĠĠ": 343,
      "ĊĠĠĠĠĠĠĠĠĠĠĠĠĠĠĠĠĠĠĠ": 344,
      "--": 345,
      "Ġand": 346,
      "ts": 347,
      "ap": 348,
      "orm": 349,
      "dex": 350,
      "ve": 351,
      "ment": 352,
      "hape": 353,
      "po": 354,
      "Ġel": 355,
      "ror": 356,
      "all": 357,
      "Ġelse": 358,
      "(\"": 359,
      "Ġg": 360,
      "Ġof": 361,
      "ĊĠĠĠĠĠ": 362,
      "path": 363,
      "ol": 364,
      "ĠT": 365,
      "data": 366,
      "Ġtf": 367,
      "Ġ+": 368,
      "il": 369,
      "list": 370,
      "),": 371,
      "et": 372,
      "od": 373,
      "args": 374,
      "size": 375,
      "qu": 376,
      "ult": 377,
      "ext": 378,
      "ent": 379,
      "Ġcon": 380,
      "ith": 381,
      "key": 382,
      "Ġ*": 383,
      "log": 384,
      "atch": 385,
      "Ġ0": 386,
      "der": 387,
      "',": 388,
      "Ġ==": 389,
      "lay": 390,
      "per": 391,
      "int": 392,
      "('": 393,
      "rom": 394,
      "ig": 395,
      "out": 396,
      "str": 397,
      "Ġres": 398,
      "pro": 399,
      "ort": 400,
      "able": 401,
      "ser": 402,
      "Ġth": 403,
      "sion": 404,
      "time": 405,
      "Ġ-": 406,
      "form": 407,
      "Ġme": 408,
      "Ġdata": 409,
      "Ġma": 410,
      "ray": 411,
      "ise": 412,
      "ance": 413,
      "layer": 414,
      "op": 415,
      "rror": 416,
      "],": 417,
      "Ġor": 418,
      "date": 419,
      "Error": 420,
      "Ġas": 421,
      "Ġr": 422,
      "che": 423,
      "\",": 424,
      "Ġhparams": 425,
      "Ġde": 426,
      "ew": 427,
      "bj": 428,
      "Ġvalue": 429,
      "te": 430,
      "ĊĠĠĠĠĠĠĠĠĠĠĠĊĠĠĠĠĠĠĠ": 431,
      "lab": 432,
      "shape": 433,
      "fo": 434,
      "vi": 435,
      "ds": 436,
      "Ġ:": 437,
      "Ġ)": 438,
      "Ġra": 439,
      "Ġpar": 440,
      "ect": 441,
      "odel": 442,
      "Ġx": 443,
      "])": 444,
      "Ġlen": 445,
      "stance": 446,
      "mb": 447,
      "ĊĠĠĠĠĠĠĠĠĠĠĠĠĠĠĠĠĠĠĠĠĠĠĠĠĠĠĠĠĠĠĠĠĠĠĠĠĠĠĠĠĠĠĠĠĠĠĠĠĠĠĠĠĠĠĠĠ": 448,
      "index": 449,
      "file": 450,
      "rue": 451,
      "Ġfi": 452,
      "cal": 453,
      "pl": 454,
      "ack": 455,
      "Ġ{": 456,
      "rain": 457,
      "Ġraise": 458,
      "')": 459,
      "ans": 460,
      "Ġ%": 461,
      "Re": 462,
      "Ġwith": 463,
      "Ġbe": 464,
      "alse": 465,
      "pre": 466,
      "lin": 467,
      "ist": 468,
      "ĠS": 469,
      "age": 470,
      "False": 471,
      "Ġnum": 472,
      "Ġu": 473,
      "ite": 474,
      "tri": 475,
      "label": 476,
      "cep": 477,
      "ase": 478,
      "add": 479,
      "Ġse": 480,
      "ep": 481,
      "Ġpro": 482,
      "Ġen": 483,
      "col": 484,
      "que": 485,
      "ten": 486,
      "Ġstr": 487,
      "ow": 488,
      "ms": 489,
      "num": 490,
      "pend": 491,
      "kw": 492,
      "\")": 493,
      "array": 494,
      "xis": 495,
      "py": 496,
      "Ġtr": 497,
      "instance": 498,
      "ht": 499,
      "ure": 500,
      "Ġv": 501,
      "art": 502,
      "ces": 503,
      "format": 504,
      "Ġfrom": 505,
      "amp": 506,
      "Ġget": 507,
      "Ġwe": 508,
      "iz": 509,
      "Ġdef": 510,
      "ff": 511,
      "Ġout": 512,
      "append": 513,
      "Ġnp": 514,
      "kwargs": 515,
      "ime": 516,
      "ta": 517,
      "['": 518,
      "ls": 519,
      "info": 520,
      "ĊĠĠĠĠĠĠĠĠĠĠĠĠĠĠĠĠĠĠĠĠĠĠĠĠĠĠĠĠĠĠĠĠ": 521,
      "puts": 522,
      "lif": 523,
      "umn": 524,
      "our": 525,
      "fig": 526,
      "ub": 527,
      "Ġlo": 528,
      "ĊĠĠĠĠĠĠĠĊĠĠĠ": 529,
      "ange": 530,
      "ĊĠĠĠĠĠĠĠĠĠĠĠĠĠĠĠĠĠĠĠĠĠĠĠ": 531,
      "Ġpre": 532,
      "Ġisinstance": 533,
      "mage": 534,
      "pa": 535,
      "sk": 536,
      "Ġnew": 537,
      "Ġelif": 538,
      "Ġan": 539,
      "ĠC": 540,
      "oc": 541,
      "----": 542,
      "ĠD": 543,
      "ator": 544,
      "bu": 545,
      "ctor": 546,
      "mm": 547,
      "ĠI": 548,
      "Ġdi": 549,
      "bo": 550,
      "gth": 551,
      "den": 552,
      "dtype": 553,
      "Ġon": 554,
      "ĠĠĠĠĠĠ": 555,
      "thod": 556,
      "ca": 557,
      "ken": 558,
      "ĠA": 559,
      "ly": 560,
      "ĠP": 561,
      "dict": 562,
      "']": 563,
      "Ġlog": 564,
      "dir": 565,
      "Ġ2": 566,
      "values": 567,
      "lock": 568,
      "rame": 569,
      "attr": 570,
      "ip": 571,
      "plit": 572,
      "ust": 573,
      "Ġcol": 574,
      "[\"": 575,
      "red": 576,
      "ample": 577,
      "arget": 578,
      "Ġha": 579,
      "ding": 580,
      "sh": 581,
      "Ġ`": 582,
      "rent": 583,
      "Ġy": 584,
      "text": 585,
      "row": 586,
      "ger": 587,
      "quest": 588,
      "Ġkey": 589,
      "='": 590,
      "Ġk": 591,
      "00": 592,
      "max": 593,
      "cess": 594,
      "jo": 595,
      "reate": 596,
      "Ġop": 597,
      "Ġlist": 598,
      "batch": 599,
      "ize": 600,
      "min": 601,
      "sor": 602,
      "line": 603,
      "obj": 604,
      "loat": 605,
      "valid": 606,
      "Ġresult": 607,
      "ind": 608,
      "Ġtype": 609,
      "ault": 610,
      "Val": 611,
      "ary": 612,
      "Ġexcep": 613,
      "low": 614,
      "arn": 615,
      "Ġhe": 616,
      "mo": 617,
      "rap": 618,
      "True": 619,
      "ource": 620,
      "Ġtime": 621,
      "ci": 622,
      "ader": 623,
      "cs": 624,
      "layers": 625,
      "us": 626,
      "lient": 627,
      "__": 628,
      "\"]": 629,
      "Ġobj": 630,
      "from": 631,
      "roup": 632,
      "Value": 633,
      "Ġaxis": 634,
      "atten": 635,
      "da": 636,
      "wor": 637,
      "eat": 638,
      "Ġtry": 639,
      "for": 640,
      "Ġ**": 641,
      "om": 642,
      "url": 643,
      "train": 644,
      "ĊĊĠĠĠĠĠĠĠĠĠĠĠ": 645,
      "os": 646,
      "lass": 647,
      "Ġal": 648,
      "Ġthat": 649,
      "Ġ>": 650,
      "sed": 651,
      "state": 652,
      "ses": 653,
      "api": 654,
      "Ġ[]": 655,
      "':": 656,
      "Ġdtype": 657,
      "ule": 658,
      "ard": 659,
      "tions": 660,
      "Ġwh": 661,
      "model": 662,
      "unc": 663,
      "tial": 664,
      "Ex": 665,
      "ĠN": 666,
      "ari": 667,
      "im": 668,
      "ty": 669,
      "ery": 670,
      "iter": 671,
      "names": 672,
      "Ġch": 673,
      "vel": 674,
      "Ġfile": 675,
      "error": 676,
      "Ġexcept": 677,
      "ener": 678,
      "Ġl": 679,
      "nel": 680,
      "():": 681,
      "Ġindex": 682,
      ").": 683,
      "Ġmodel": 684,
      "Ġthis": 685,
      "length": 686,
      "Ġset": 687,
      "config": 688,
      "ft": 689,
      "ments": 690,
      "sert": 691,
      "ameter": 692,
      "sc": 693,
      "unt": 694,
      "ll": 695,
      "ValueError": 696,
      "port": 697,
      "Ġle": 698,
      "Ġad": 699,
      "Con": 700,
      "tf": 701,
      "Ġun": 702,
      "izer": 703,
      "load": 704,
      "eld": 705,
      "read": 706,
      "Ġvalues": 707,
      "cur": 708,
      "ity": 709,
      "ĠTrue": 710,
      "Ġmax": 711,
      "ore": 712,
      "tra": 713,
      "update": 714,
      "Ġos": 715,
      "ĠValueError": 716,
      "by": 717,
      "In": 718,
      "Ġsh": 719,
      "ĊĠĠĠĠĠĠĠĠĠĠĠĠĠĠĠĠĠĠĠĠĠĠĠĠĠĠĠĠĠĠĠĠĠĠĠĠĠĠĠĠĠĠĠĠĠĠĠĠĠĠĠĠĠĠĠĠĠĠĠĠĠĠĠĠĠĠĠĠĠĠĠĠ": 720,
      "Ġall": 721,
      "ight": 722,
      "Ġpath": 723,
      "ĊĠĠĠĠĠĠĠĠĠ": 724,
      "try": 725,
      "pon": 726,
      "\":": 727,
      "lu": 728,
      "Ġlabel": 729,
      "version": 730,
      "ĠM": 731,
      "Ġby": 732,
      "Ġpa": 733,
      "ulti": 734,
      "oo": 735,
      "=\"": 736,
      "umns": 737,
      "join": 738,
      "ded": 739,
      "adata": 740,
      "gra": 741,
      "pla": 742,
      "split": 743,
      "ker": 744,
      "we": 745,
      "mer": 746,
      "attention": 747,
      "vert": 748,
      "Ġ/": 749,
      "rip": 750,
      "start": 751,
      "lic": 752,
      "query": 753,
      "call": 754,
      "sy": 755,
      "heck": 756,
      "Ġint": 757,
      "tadata": 758,
      "ac": 759,
      "Ġ<": 760,
      "fix": 761,
      "ĊĠĠĠĠĠĠĠĠĠĠĠĠĠĠĠĠĠĠĠĠĠĠĠĠĠĠĠĠĠĠĠĠĠĠĠĠĠĠĠĠĠĠĠĠĠĠĠĠ": 762,
      "rite": 763,
      "ory": 764,
      "string": 765,
      "ĠL": 766,
      "Return": 767,
      "].": 768,
      "sum": 769,
      "Ġit": 770,
      "ies": 771,
      "ile": 772,
      "Ġj": 773,
      "float": 774,
      "ĊĊĠ": 775,
      "ĠW": 776,
      "Ġ.": 777,
      "ĠB": 778,
      "Ġare": 779,
      "[:": 780,
      "ctions": 781,
      "coder": 782,
      "ther": 783,
      "Ġcomm": 784,
      "und": 785,
      "token": 786,
      "Ġoutput": 787,
      "mat": 788,
      "Ġ{}": 789,
      "map": 790,
      "trans": 791,
      "back": 792,
      "ven": 793,
      "Ġstart": 794,
      "ild": 795,
      "ĠFalse": 796,
      "Ġcur": 797,
      "Ġinput": 798,
      "step": 799,
      "mask": 800,
      "rst": 801,
      "place": 802,
      "method": 803,
      "ĠF": 804,
      "ec": 805,
      "mport": 806,
      "qui": 807,
      "Ġne": 808,
      "uple": 809,
      "Ġ!": 810,
      "Ġassert": 811,
      "ill": 812,
      "image": 813,
      "quen": 814,
      "Ġ!=": 815,
      "types": 816,
      "Ġ+=": 817,
      "itial": 818,
      "sing": 819,
      "comp": 820,
      "Ġparam": 821,
      "([": 822,
      "output": 823,
      "Ġso": 824,
      "igh": 825,
      "cor": 826,
      "ariable": 827,
      "ponse": 828,
      "axis": 829,
      "rint": 830,
      "core": 831,
      "Ġbatch": 832,
      "ject": 833,
      "son": 834,
      "gn": 835,
      "ĠR": 836,
      "with": 837,
      "ER": 838,
      "ute": 839,
      "last": 840,
      "block": 841,
      "its": 842,
      "Ġtrain": 843,
      "parse": 844,
      "class": 845,
      "ag": 846,
      "Ġdo": 847,
      "Ġdefault": 848,
      "Ġrange": 849,
      "be": 850,
      "Ġpo": 851,
      "64": 852,
      "input": 853,
      "arning": 854,
      "ber": 855,
      "ssage": 856,
      ".__": 857,
      "Ġtarget": 858,
      "idx": 859,
      "pi": 860,
      "odule": 861,
      "own": 862,
      "Ġfunction": 863,
      "node": 864,
      "hparams": 865,
      "ensor": 866,
      "base": 867,
      "Ġarg": 868,
      "ĊĠĠĠĠĠĠĠĠĠĠĠĠĠĠĠĠĠĠĠĠĠĠĠĠĠĠĠ": 869,
      "Ġ3": 870,
      "IN": 871,
      "andle": 872,
      "Ġend": 873,
      "not": 874,
      "ias": 875,
      "Ġuse": 876,
      "ble": 877,
      "Ġstring": 878,
      "Ġobject": 879,
      "Ġ->": 880,
      "ations": 881,
      "andom": 882,
      "fil": 883,
      "group": 884,
      "ine": 885,
      "ne": 886,
      "target": 887,
      "np": 888,
      "Ġcheck": 889,
      "dim": 890,
      "process": 891,
      "Ġshape": 892,
      "idden": 893,
      "Ġac": 894,
      "Ġimage": 895,
      "arr": 896,
      "ĊĠĠĠĠĠĠĠĠĠĠĠĠĠĠĠĠĠĠĠĠĠĠĠĠĠĠĠĠĠĠĠĠĠĠĠĠĠĠĠĠĠĠĠĠĠĠĠĠĠĠĠĠĠĠĠĠĠĠĠĠĠĠĠĠ": 897,
      "Ġother": 898,
      "xes": 899,
      "cat": 900,
      "arch": 901,
      "ception": 902,
      "ĠO": 903,
      "Frame": 904,
      "Ġsy": 905,
      "use": 906,
      "sub": 907,
      "Ġcan": 908,
      "Ġstate": 909,
      "loc": 910,
      "result": 911,
      "av": 912,
      "req": 913,
      "ures": 914,
      "ated": 915,
      "ren": 916,
      "rial": 917,
      "())": 918,
      "norm": 919,
      "write": 920,
      "Ġmethod": 921,
      "items": 922,
      "Ġlayer": 923,
      "Ġat": 924,
      "Ġtrans": 925,
      "lob": 926,
      "raph": 927,
      "mbol": 928,
      "Ġbu": 929,
      "dices": 930,
      "Ġhas": 931,
      "fe": 932,
      "idth": 933,
      "nd": 934,
      "ps": 935,
      "annel": 936,
      "uct": 937,
      "Ġsub": 938,
      "new": 939,
      "count": 940,
      "ument": 941,
      "uld": 942,
      "Type": 943,
      "Ġ,": 944,
      "ave": 945,
      "iven": 946,
      "Ġbo": 947,
      "Ġmask": 948,
      "level": 949,
      "ght": 950,
      "Ġro": 951,
      "Ġca": 952,
      "func": 953,
      "inputs": 954,
      "ay": 955,
      "tern": 956,
      "ateg": 957,
      "ward": 958,
      "exp": 959,
      "ner": 960,
      "Ġwor": 961,
      "ameters": 962,
      "filter": 963,
      "table": 964,
      "ocab": 965,
      "metri": 966,
      "Ġcont": 967,
      "oth": 968,
      "pace": 969,
      "lement": 970,
      "Data": 971,
      "Ġrequest": 972,
      "ress": 973,
      "ĠQ": 974,
      "loss": 975,
      "lice": 976,
      "eature": 977,
      "Ġte": 978,
      "ĠG": 979,
      "lename": 980,
      "lamb": 981,
      "Ġmin": 982,
      "Ġz": 983,
      "Ġprint": 984,
      "fn": 985,
      "andas": 986,
      "ON": 987,
      "inal": 988,
      "32": 989,
      "Par": 990,
      "mbed": 991,
      "rop": 992,
      "bs": 993,
      "peri": 994,
      "ok": 995,
      "Ġinputs": 996,
      "tim": 997,
      "ach": 998,
      "Ġtoken": 999,
      "ream": 1000,
      "lambda": 1001,
      "Ġdate": 1002,
      "check": 1003,
      "Ġcomp": 1004,
      "ults": 1005,
      "Ġhave": 1006,
      "Ġadd": 1007,
      "ĠData": 1008,
      "lim": 1009,
      "\".": 1010,
      "adding": 1011,
      "ights": 1012,
      "Ġargs": 1013,
      "Ġrow": 1014,
      "quence": 1015,
      "ĠIn": 1016,
      "nn": 1017,
      "right": 1018,
      "frame": 1019,
      "sco": 1020,
      "EN": 1021,
      "ron": 1022,
      "Ġimport": 1023,
      "ative": 1024,
      "cket": 1025,
      "sition": 1026,
      "ĠEx": 1027,
      "datetime": 1028,
      "thon": 1029,
      "ix": 1030,
      "Ġkwargs": 1031,
      "coding": 1032,
      "uti": 1033,
      "peci": 1034,
      "columns": 1035,
      "().": 1036,
      "ĠU": 1037,
      "conv": 1038,
      "keys": 1039,
      "trib": 1040,
      "Ġarray": 1041,
      "Ar": 1042,
      "ould": 1043,
      "pb": 1044,
      "mory": 1045,
      "df": 1046,
      "like": 1047,
      "AT": 1048,
      "var": 1049,
      "(),": 1050,
      "ast": 1051,
      "ride": 1052,
      "late": 1053,
      "amples": 1054,
      "RE": 1055,
      "client": 1056,
      "Ġno": 1057,
      "ull": 1058,
      "eatures": 1059,
      "ume": 1060,
      ")))": 1061,
      "ical": 1062,
      "comm": 1063,
      "Ġgiven": 1064,
      "cls": 1065,
      "ks": 1066,
      "Ġvalid": 1067,
      "sses": 1068,
      "lat": 1069,
      "otal": 1070,
      "ree": 1071,
      "ids": 1072,
      "'t": 1073,
      "ched": 1074,
      "pect": 1075,
      "lib": 1076,
      "Ġdis": 1077,
      "Ġdict": 1078,
      "ic": 1079,
      "uce": 1080,
      "Ġ\\": 1081,
      "Ġpy": 1082,
      "Ġline": 1083,
      "head": 1084,
      "ĠX": 1085,
      "copy": 1086,
      "header": 1087,
      "attrs": 1088,
      "net": 1089,
      "clo": 1090,
      "ĊĠĠĠĠĠĠĠĠĠĠĠĠĠ": 1091,
      "poch": 1092,
      "so": 1093,
      "Ġlogger": 1094,
      "eval": 1095,
      "Ġsize": 1096,
      "ers": 1097,
      "(*": 1098,
      "ping": 1099,
      "ual": 1100,
      "Ġcommon": 1101,
      "ost": 1102,
      "Ġ}": 1103,
      ")]": 1104,
      "tes": 1105,
      "scal": 1106,
      "default": 1107,
      "ant": 1108,
      "Ġap": 1109,
      "ply": 1110,
      "DE": 1111,
      "no": 1112,
      "Ġmx": 1113,
      "dep": 1114,
      "..": 1115,
      "Ġbase": 1116,
      "are": 1117,
      "pu": 1118,
      "Ġmetadata": 1119,
      "Ġcurrent": 1120,
      "Ġerror": 1121,
      "ĠQA": 1122,
      "Ġite": 1123,
      "object": 1124,
      "ties": 1125,
      "--------": 1126,
      "create": 1127,
      "variable": 1128,
      "ging": 1129,
      "Ġeval": 1130,
      "'.": 1131,
      "actor": 1132,
      "reshape": 1133,
      "Ġlength": 1134,
      "'s": 1135,
      "Ġformat": 1136,
      "mary": 1137,
      "Ġblock": 1138,
      "na": 1139,
      "Ġcall": 1140,
      "lect": 1141,
      "init": 1142,
      "ropo": 1143,
      "clu": 1144,
      "Ġcreate": 1145,
      "ĠH": 1146,
      "]:": 1147,
      "ir": 1148,
      "main": 1149,
      "tensor": 1150,
      "Returns": 1151,
      "ropout": 1152,
      "'):": 1153,
      "Ġfirst": 1154,
      "ST": 1155,
      "gs": 1156,
      "Ġnode": 1157,
      "sp": 1158,
      "((": 1159,
      "Ġcls": 1160,
      "Ġper": 1161,
      "ĊĠĠĠĠĠĠĠĠĠĠĠĠĠĠĠĠĠĠĠĠĠĠĠĠĠĠĠĠĠĠĠ": 1162,
      "ref": 1163,
      "(_": 1164,
      "hidden": 1165,
      "Ġquery": 1166,
      "env": 1167,
      "St": 1168,
      "rate": 1169,
      "Ġextra": 1170,
      "alle": 1171,
      "gle": 1172,
      "stat": 1173,
      ")):": 1174,
      "Ġconfig": 1175,
      "tiv": 1176,
      "ĠType": 1177,
      "ilter": 1178,
      "action": 1179,
      "ak": 1180,
      "json": 1181,
      "ĠWe": 1182,
      "Ġiter": 1183,
      "word": 1184,
      "Ġurl": 1185,
      "Ġparams": 1186,
      "Lo": 1187,
      "[-": 1188,
      "lobal": 1189,
      "gener": 1190,
      "source": 1191,
      "his": 1192,
      "Ġinto": 1193,
      "vice": 1194,
      "Ġone": 1195,
      "mean": 1196,
      "bias": 1197,
      "temp": 1198,
      "ategor": 1199,
      "metadata": 1200,
      "scrip": 1201,
      "order": 1202,
      "viron": 1203,
      "uture": 1204,
      "lete": 1205,
      "channel": 1206,
      "sign": 1207,
      "doc": 1208,
      "tive": 1209,
      "Ġtimeout": 1210,
      "Ġgra": 1211,
      "Ġret": 1212,
      "fer": 1213,
      "Ġdataset": 1214,
      "ion": 1215,
      "old": 1216,
      "limit": 1217,
      "{}": 1218,
      "Ġcopy": 1219,
      "fy": 1220,
      "cast": 1221,
      "OR": 1222,
      "sent": 1223,
      "grad": 1224,
      "Ġ4": 1225,
      "Ġclient": 1226,
      "ask": 1227,
      "day": 1228,
      "run": 1229,
      "mbedding": 1230,
      "Ġlast": 1231,
      "unk": 1232,
      "range": 1233,
      "ign": 1234,
      "rence": 1235,
      "timeout": 1236,
      "store": 1237,
      "tional": 1238,
      "fied": 1239,
      "request": 1240,
      "Ġonly": 1241,
      "mpty": 1242,
      "former": 1243,
      "Index": 1244,
      "other": 1245,
      "AR": 1246,
      "Ġpass": 1247,
      "ĠTypeError": 1248,
      "ĠE": 1249,
      "Ġconvert": 1250,
      "Ġcolumns": 1251,
      "pos": 1252,
      "##": 1253,
      "Ġnext": 1254,
      "Ġlabels": 1255,
      "Ġsort": 1256,
      "dims": 1257,
      "\"):": 1258,
      "`.": 1259,
      "width": 1260,
      "ield": 1261,
      "Array": 1262,
      "Ġspeci": 1263,
      "Ġwill": 1264,
      "zer": 1265,
      "point": 1266,
      "Ġeach": 1267,
      "quire": 1268,
      "Ġfloat": 1269,
      "tain": 1270,
      "handle": 1271,
      "ler": 1272,
      "eries": 1273,
      "ates": 1274,
      "Ġneed": 1275,
      "Ġcode": 1276,
      "]]": 1277,
      "ĠRe": 1278,
      "Ġsup": 1279,
      "keep": 1280,
      "Ġtuple": 1281,
      "Ġgroup": 1282,
      "lta": 1283,
      "ents": 1284,
      "ffer": 1285,
      "initial": 1286,
      "ries": 1287,
      "hparam": 1288,
      "tx": 1289,
      "lable": 1290,
      "move": 1291,
      "ich": 1292,
      "indices": 1293,
      "Ġid": 1294,
      "here": 1295,
      "cache": 1296,
      "ME": 1297,
      "orch": 1298,
      "Ġoper": 1299,
      "ava": 1300,
      "timizer": 1301,
      "Pro": 1302,
      "ait": 1303,
      "Ġversion": 1304,
      "prefix": 1305,
      "rector": 1306,
      "labels": 1307,
      "oogle": 1308,
      "SE": 1309,
      "Ġnumber": 1310,
      "Ġshould": 1311,
      "Ġtext": 1312,
      "Ke": 1313,
      "Ġrun": 1314,
      "ive": 1315,
      "Ġmulti": 1316,
      "lp": 1317,
      "chema": 1318,
      "Ġdoc": 1319,
      "act": 1320,
      "Ġtable": 1321,
      "Ġfilter": 1322,
      "err": 1323,
      "umer": 1324,
      "rect": 1325,
      "com": 1326,
      "top": 1327,
      "Ġresponse": 1328,
      "Ġorder": 1329,
      "pute": 1330,
      "concat": 1331,
      "Ġval": 1332,
      "link": 1333,
      "licy": 1334,
      "pr": 1335,
      "dd": 1336,
      "Ġsplit": 1337,
      "=(": 1338,
      "ized": 1339,
      "scope": 1340,
      "dist": 1341,
      "serv": 1342,
      "Ġtra": 1343,
      "decode": 1344,
      "tity": 1345,
      "Ġmust": 1346,
      "extra": 1347,
      "stamp": 1348,
      "Ġgener": 1349,
      "item": 1350,
      "steps": 1351,
      "local": 1352,
      "make": 1353,
      "periment": 1354,
      "multi": 1355,
      "Ġstep": 1356,
      "ards": 1357,
      "Key": 1358,
      "reg": 1359,
      "mar": 1360,
      "trial": 1361,
      "job": 1362,
      "of": 1363,
      "random": 1364,
      "Ġnames": 1365,
      "project": 1366,
      "Ġdep": 1367,
      "Ġover": 1368,
      "pop": 1369,
      "ous": 1370,
      "Ġq": 1371,
      "symbol": 1372,
      "ped": 1373,
      "ression": 1374,
      "indow": 1375,
      "Ġcom": 1376,
      "Ġmake": 1377,
      "ĊĠĠĠĠĠĠĠĠĠĠĠĠĠĠĠĠĠĠĠĠĠ": 1378,
      "ists": 1379,
      "Ġany": 1380,
      "nc": 1381,
      "Ġpad": 1382,
      "uni": 1383,
      "Ġmetri": 1384,
      "Create": 1385,
      "module": 1386,
      "Ġcontin": 1387,
      "ml": 1388,
      "cont": 1389,
      "uments": 1390,
      "ote": 1391,
      "ĠPar": 1392,
      "Ġheader": 1393,
      "pad": 1394,
      "Ġim": 1395,
      "vide": 1396,
      "pec": 1397,
      "Ġtensor": 1398,
      "Ġcolumn": 1399,
      "current": 1400,
      "tt": 1401,
      "Ġup": 1402,
      "ĊĠĠĠĠĠĠĠĠĠĠĠĠĠĠĠĠĠĠĠĠĠĠĠĠĠ": 1403,
      "dent": 1404,
      "rectory": 1405,
      "andler": 1406,
      "elds": 1407,
      "Ġwhich": 1408,
      "AL": 1409,
      "filename": 1410,
      "bin": 1411,
      "ĠDataFrame": 1412,
      "[:,": 1413,
      "uth": 1414,
      "Ġ``": 1415,
      "mode": 1416,
      "Ġinitial": 1417,
      "ound": 1418,
      "metric": 1419,
      "Ġtemp": 1420,
      "clude": 1421,
      "ĊĠĠĠĠĠĊĠ": 1422,
      "test": 1423,
      "reduce": 1424,
      "Ġread": 1425,
      "Ġwhile": 1426,
      "exec": 1427,
      "ĠIf": 1428,
      "ffset": 1429,
      "Ġmode": 1430,
      "lust": 1431,
      "response": 1432,
      "ference": 1433,
      "ternal": 1434,
      "Ġitem": 1435,
      "sort": 1436,
      "slice": 1437,
      "Ġfunc": 1438,
      "Ġctypes": 1439,
      "vent": 1440,
      "ong": 1441,
      "Ġsum": 1442,
      "weight": 1443,
      "umerate": 1444,
      "sq": 1445,
      "delta": 1446,
      "Ġupdate": 1447,
      "dataset": 1448,
      "cy": 1449,
      "match": 1450,
      "ĊĊĠĠĠĠĠĠĠĠĠĠĠĠĠĠĠ": 1451,
      "Ġmatch": 1452,
      "context": 1453,
      "wer": 1454,
      "pack": 1455,
      "Ġcontinue": 1456,
      "blocks": 1457,
      "tokens": 1458,
      "=[": 1459,
      "issing": 1460,
      "Ġpadding": 1461,
      "Ġcache": 1462,
      "ux": 1463,
      "cle": 1464,
      "inter": 1465,
      "Ġenumerate": 1466,
      "Ġscal": 1467,
      "10": 1468,
      "just": 1469,
      "lection": 1470,
      "Ġlevel": 1471,
      "cla": 1472,
      "left": 1473,
      "Ġback": 1474,
      "logits": 1475,
      "ĠThis": 1476,
      ")[": 1477,
      "ĠThe": 1478,
      "==": 1479,
      "gin": 1480,
      "ld": 1481,
      "ally": 1482,
      "command": 1483,
      "message": 1484,
      "tition": 1485,
      "session": 1486,
      "Ġ]": 1487,
      "lip": 1488,
      "cre": 1489,
      "UL": 1490,
      "ting": 1491,
      "Ġdf": 1492,
      "outputs": 1493,
      "ĊĠĠĠĠĠĠĠĠĠĠĠĠĠĠĠĠĠĠĠĠĠĠĠĠĠĠĠĠĠĠĠĠĠĠĠ": 1494,
      "column": 1495,
      "lines": 1496,
      "Ġnet": 1497,
      "ĊĠĠĠĠĠĠĠĠĠĠĠĠĠĠĠĠĠĠĠĠĠĠ": 1498,
      "qual": 1499,
      "PI": 1500,
      "vector": 1501,
      "bug": 1502,
      "ĠException": 1503,
      "save": 1504,
      "struct": 1505,
      "Ġmessage": 1506,
      "inner": 1507,
      "ĊĠĠĠĠĠĠĠĠĠĠĠĊĊĠĠĠĠĠĠĠ": 1508,
      "field": 1509,
      "Ġfeature": 1510,
      "ĊĠĠĠĠĠĠĠĠĠĠĠĠĠĠĠĠĠ": 1511,
      "Ġfield": 1512,
      "stall": 1513,
      "ĊĠĠĠĠĠĠĠĠĠĠĠĠĠĠĠĠĠĠĠĠĠĠĠĠĠĠ": 1514,
      "Ġparse": 1515,
      "ric": 1516,
      "Ġuser": 1517,
      "ock": 1518,
      "sure": 1519,
      "Ġzip": 1520,
      "ie": 1521,
      "rel": 1522,
      "ches": 1523,
      "ffe": 1524,
      "PE": 1525,
      "epoch": 1526,
      "Ġdist": 1527,
      "gr": 1528,
      "vocab": 1529,
      "Ġcor": 1530,
      "OD": 1531,
      "Ġretry": 1532,
      "Ġbut": 1533,
      "ash": 1534,
      "LE": 1535,
      "Tensor": 1536,
      "De": 1537,
      "][": 1538,
      "replace": 1539,
      "user": 1540,
      "coun": 1541,
      "Ġctx": 1542,
      ")),": 1543,
      "Ġload": 1544,
      "Ġloss": 1545,
      "Get": 1546,
      "eta": 1547,
      "ager": 1548,
      "first": 1549,
      "util": 1550,
      "wait": 1551,
      "Ġnon": 1552,
      "Ġpandas": 1553,
      "dis": 1554,
      "fill": 1555,
      "etch": 1556,
      "close": 1557,
      "Ġinstance": 1558,
      "``": 1559,
      "Ġright": 1560,
      "ources": 1561,
      "Ġcommand": 1562,
      "tuple": 1563,
      "Ġwhen": 1564,
      "targets": 1565,
      "Ġsk": 1566,
      "char": 1567,
      "weights": 1568,
      "Ġtrial": 1569,
      "tribute": 1570,
      "md": 1571,
      "sg": 1572,
      "Ġag": 1573,
      "Ġproject": 1574,
      "box": 1575,
      "summary": 1576,
      "channels": 1577,
      "Ġclass": 1578,
      "tag": 1579,
      "callback": 1580,
      "any": 1581,
      "park": 1582,
      "ict": 1583,
      "graph": 1584,
      "Ġlambda": 1585,
      "Ġnorm": 1586,
      "Ġstride": 1587,
      "tivation": 1588,
      "cation": 1589,
      "Ġpos": 1590,
      "fore": 1591,
      "blem": 1592,
      "Ġyield": 1593,
      "arts": 1594,
      "luster": 1595,
      "ste": 1596,
      "Ġarr": 1597,
      "titions": 1598,
      "ody": 1599,
      "Ġ>=": 1600,
      "Ġinter": 1601,
      "Ġallow": 1602,
      "ake": 1603,
      "wrap": 1604,
      "Ġdecode": 1605,
      "apic": 1606,
      "cond": 1607,
      "position": 1608,
      "indexer": 1609,
      "Ġgetattr": 1610,
      "buffer": 1611,
      "worker": 1612,
      "pose": 1613,
      "Ġjson": 1614,
      "normal": 1615,
      "Ġrandom": 1616,
      "ĠCon": 1617,
      "Ġtorch": 1618,
      "Ġorig": 1619,
      "FA": 1620,
      "riter": 1621,
      "ĊĠĠĠĠĠĠĠĊĊĠĠĠ": 1622,
      "TY": 1623,
      "sample": 1624,
      "Ġexp": 1625,
      "ä¸": 1626,
      "ĊĠĠĠĠĠĠĠĠĠĠĠĠĠĠĠĠĠĠĠĠ": 1627,
      "gapic": 1628,
      "retry": 1629,
      "Ġencoding": 1630,
      "ization": 1631,
      "depth": 1632,
      "encoder": 1633,
      "Ġmap": 1634,
      "Ġvocab": 1635,
      "relu": 1636,
      "ctx": 1637,
      "open": 1638,
      "rix": 1639,
      "Ġresource": 1640,
      "msg": 1641,
      "buf": 1642,
      "Ġtotal": 1643,
      "nsion": 1644,
      "Ġmodule": 1645,
      "convert": 1646,
      "Ġbool": 1647,
      "memory": 1648,
      "Ġconv": 1649,
      "metrics": 1650,
      "dropout": 1651,
      "Ġopen": 1652,
      "ernel": 1653,
      "utes": 1654,
      "lot": 1655,
      "files": 1656,
      "pri": 1657,
      "List": 1658,
      "heads": 1659,
      "Ġlayers": 1660,
      "stack": 1661,
      "strip": 1662,
      "12": 1663,
      "LO": 1664,
      "ou": 1665,
      "space": 1666,
      "next": 1667,
      "Ġsource": 1668,
      "Ġ['": 1669,
      "zeros": 1670,
      "sha": 1671,
      "Ġsame": 1672,
      "ĊĠĠĠĠĠĠĠĠĠĠĠĠĠĠĠĠĠĠĠĠĠĠĠĠĠĠĠĠĠ": 1673,
      "Ġlocal": 1674,
      "find": 1675,
      "img": 1676,
      "cord": 1677,
      "ULT": 1678,
      "Ġmat": 1679,
      "ĠList": 1680,
      "ĊĠĠĠĠĠĠĠĠĠĠĠĠĠĠĠĠĠĠĠĠĠĠĠĠĠĠĠĠĠĠ": 1681,
      "options": 1682,
      "Ġusing": 1683,
      "cols": 1684,
      "fter": 1685,
      "ns": 1686,
      "Ġreg": 1687,
      "ted": 1688,
      "std": 1689,
      "Ġdoes": 1690,
      "ownload": 1691,
      "river": 1692,
      "MA": 1693,
      "Ġ5": 1694,
      "ang": 1695,
      "ssion": 1696,
      "Ġsession": 1697,
      "bool": 1698,
      "uration": 1699,
      "ĊĠĠĠĠĠĠĠĠĠĠĠĠĠĠĠĠĠĠĠĠĠĠĠĠĠĠĠĠ": 1700,
      "features": 1701,
      "Ġframe": 1702,
      "Ġstat": 1703,
      "rans": 1704,
      "odal": 1705,
      "Ġmsg": 1706,
      "Ġver": 1707,
      "LA": 1708,
      "Ġattention": 1709,
      "astype": 1710,
      "sets": 1711,
      "nan": 1712,
      "Ġcase": 1713,
      "anager": 1714,
      "Name": 1715,
      "Ġav": 1716,
      "Ġkernel": 1717,
      "cell": 1718,
      "view": 1719,
      "reak": 1720,
      "rows": 1721,
      "work": 1722,
      "Ġkeep": 1723,
      "debug": 1724,
      "Ġdatetime": 1725,
      "CH": 1726,
      "//": 1727,
      "01": 1728,
      "bot": 1729,
      "sym": 1730,
      "Ġinfo": 1731,
      "Ġcontain": 1732,
      "Ġparser": 1733,
      ":`": 1734,
      "]))": 1735,
      "ined": 1736,
      "Co": 1737,
      "feature": 1738,
      "Ġused": 1739,
      "pred": 1740,
      "const": 1741,
      "scription": 1742,
      "stop": 1743,
      "})": 1744,
      "sequence": 1745,
      "attern": 1746,
      "Ġaction": 1747,
      "Ġfilename": 1748,
      "expand": 1749,
      "gress": 1750,
      "ob": 1751,
      "Ġfeatures": 1752,
      "Ġsu": 1753,
      "apply": 1754,
      "Ġprefix": 1755,
      "training": 1756,
      "Ġleft": 1757,
      "latten": 1758,
      "Ġfill": 1759,
      "FAULT": 1760,
      "embedding": 1761,
      "ved": 1762,
      "Ġindices": 1763,
      "uto": 1764,
      "Ġuni": 1765,
      "Ġmemory": 1766,
      "Ġmay": 1767,
      "dates": 1768,
      "predi": 1769,
      "File": 1770,
      "ax": 1771,
      "Ġax": 1772,
      "nect": 1773,
      "Ġ{'": 1774,
      "actions": 1775,
      "Ġpredi": 1776,
      "Ġtraining": 1777,
      "headers": 1778,
      "Ġskip": 1779,
      "\"\"": 1780,
      "starts": 1781,
      "search": 1782,
      "'],": 1783,
      "div": 1784,
      "Ġweights": 1785,
      "Ġhead": 1786,
      "imp": 1787,
      "Ġparent": 1788,
      "tz": 1789,
      "status": 1790,
      "ry": 1791,
      "ingle": 1792,
      "bytes": 1793,
      "ail": 1794,
      "Ġsample": 1795,
      "Ġ<=": 1796,
      "alled": 1797,
      "Res": 1798,
      "lements": 1799,
      "Ġtop": 1800,
      "ndarray": 1801,
      "asi": 1802,
      "encode": 1803,
      "ĊĠĠĠĠĠĠĠĠĠĠĠĠĠĠĠĠĠĠĠĠĠĠĠĠĠĠĠĠĠĠĠĠĠĠĠĠĠĠĠ": 1804,
      "fin": 1805,
      "Un": 1806,
      "do": 1807,
      "flow": 1808,
      "Ġbreak": 1809,
      "Ġprocess": 1810,
      "ets": 1811,
      "padding": 1812,
      "Op": 1813,
      "Ġpd": 1814,
      "Ġgraph": 1815,
      "ĊĠĠĠĠĠĠĠĠĠĠĠĠĠĠĠĠĠĠĠĠĠĠĠĠĠĠĠĠĠĠĠĠĠĠĠĠ": 1816,
      "raw": 1817,
      "Ġvariable": 1818,
      "states": 1819,
      "ĠOp": 1820,
      "En": 1821,
      "return": 1822,
      "ID": 1823,
      "Ġoutputs": 1824,
      "Ġimg": 1825,
      "ION": 1826,
      "total": 1827,
      "ĊĠĠĠĠĠĠĠĠĠĠĠĠĠĠĠĠĠĠ": 1828,
      "shapes": 1829,
      "\"],": 1830,
      "categor": 1831,
      "fetch": 1832,
      "ors": 1833,
      "Ġlogging": 1834,
      "global": 1835,
      "Ġsp": 1836,
      "pected": 1837,
      "initializer": 1838,
      "Ġact": 1839,
      "ilder": 1840,
      "prod": 1841,
      "annot": 1842,
      "Ġoff": 1843,
      "Ġmean": 1844,
      "ĠIndex": 1845,
      "utils": 1846,
      "DD": 1847,
      "codes": 1848,
      "resh": 1849,
      "prob": 1850,
      "Ġidx": 1851,
      "RA": 1852,
      "stream": 1853,
      "Ġkeys": 1854,
      "ODO": 1855,
      ".\")": 1856,
      "number": 1857,
      "classes": 1858,
      "wards": 1859,
      "environ": 1860,
      "parent": 1861,
      "Col": 1862,
      "LI": 1863,
      "score": 1864,
      "ints": 1865,
      "boxes": 1866,
      "Ġhere": 1867,
      "Ġfiles": 1868,
      "DataFrame": 1869,
      "learning": 1870,
      "TYPE": 1871,
      "SS": 1872,
      "nection": 1873,
      "Ġresults": 1874,
      "lower": 1875,
      "vars": 1876,
      "gen": 1877,
      "Ġmo": 1878,
      "ported": 1879,
      "Ġhasattr": 1880,
      "template": 1881,
      "uting": 1882,
      "DEFAULT": 1883,
      "Ġfin": 1884,
      "umeric": 1885,
      "io": 1886,
      "rit": 1887,
      "termin": 1888,
      "Ġsys": 1889,
      "'))": 1890,
      "rc": 1891,
      ":]": 1892,
      "oper": 1893,
      "offset": 1894,
      "spec": 1895,
      "Ġsingle": 1896,
      "ĠTODO": 1897,
      "CT": 1898,
      "Ġ--": 1899,
      "Ġtargets": 1900,
      "ution": 1901,
      "height": 1902,
      "Ġ_,": 1903,
      "cay": 1904,
      "ook": 1905,
      "'])": 1906,
      "pha": 1907,
      "Ġthen": 1908,
      "Ġchar": 1909,
      "calls": 1910,
      "Set": 1911,
      "ĠKey": 1912,
      "Ġcal": 1913,
      "Ġwidth": 1914,
      "Ġ100": 1915,
      "Ġsave": 1916,
      "Ġhandle": 1917,
      "content": 1918,
      "startswith": 1919,
      "python": 1920,
      "Str": 1921,
      "resource": 1922,
      "Ġparameters": 1923,
      "Ġenv": 1924,
      "odality": 1925,
      "ain": 1926,
      "freq": 1927,
      "verse": 1928,
      "Ġsome": 1929,
      "Ġsorted": 1930,
      "çļ": 1931,
      "Ġspecified": 1932,
      "çļĦ": 1933,
      "UT": 1934,
      "gine": 1935,
      "Ġ--------": 1936,
      "Ġ('": 1937,
      "ear": 1938,
      "ython": 1939,
      "stim": 1940,
      "Ġ__": 1941,
      "Ġhidden": 1942,
      "ĠSeries": 1943,
      "xy": 1944,
      "seq": 1945,
      "ating": 1946,
      "road": 1947,
      "logging": 1948,
      "RO": 1949,
      "čĊĠĠĠĠĠĠĠĠĠĠĠ": 1950,
      "Ġexperiment": 1951,
      "Ġvar": 1952,
      "cause": 1953,
      "okie": 1954,
      "mon": 1955,
      "Ġtag": 1956,
      "Ġdisable": 1957,
      "utf": 1958,
      "board": 1959,
      "ftmax": 1960,
      "ready": 1961,
      "Model": 1962,
      "Ġhtt": 1963,
      "queue": 1964,
      "Ġempty": 1965,
      "Ġgrad": 1966,
      "drop": 1967,
      "ify": 1968,
      "Ġclo": 1969,
      "imum": 1970,
      "DArray": 1971,
      "factor": 1972,
      "ug": 1973,
      "ket": 1974,
      "dum": 1975,
      "optimizer": 1976,
      "ank": 1977,
      "Ġpack": 1978,
      "exists": 1979,
      "istory": 1980,
      "ĊĠĠĠĠĠĠĠĠĠĠĠĠĠĠĠĠĠĠĠĠĠĠĠĠĠĠĠĠĠĠĠĠĠĠĠĠĠĠĠĠĠĠĠĠĠĠĠĠĠĠĠĠĠĠĠĠĠĠĠĠĠĠĠĠĠĠĠĠĠĠĠĠĠĠĠĠĠĠĠĠĠĠĠĠĠĠĠĠ": 1981,
      "Ġ):": 1982,
      "ĊĠĠĠĠĠĠĠĠĠĠĠĠĠĠ": 1983,
      "ster": 1984,
      "Ġsha": 1985,
      "vals": 1986,
      "Ġtokens": 1987,
      "Ġign": 1988,
      "Ġpi": 1989,
      "Ġexec": 1990,
      "scale": 1991,
      "://": 1992,
      "non": 1993,
      "Ġexist": 1994,
      "ĊĠĠĠĠĠĠĠĠĠĠĠĠĠĠĠĠĠĠĠĠĠĠĠĠĠĠĠĠĠĠĠĠĠĠ": 1995,
      "Ġlat": 1996,
      "Ġray": 1997,
      "scalar": 1998,
      "video": 1999,
      "Ġencoder": 2000,
      "Ġ//": 2001,
      "Ġdepth": 2002,
      "AME": 2003,
      "TT": 2004,
      "čĊĠĠĠĠĠĠĠ": 2005,
      "device": 2006,
      "encoding": 2007,
      "server": 2008,
      "FI": 2009,
      "]),": 2010,
      "lper": 2011,
      "Ġsymbol": 2012,
      "dt": 2013,
      "lean": 2014,
      "Ġerrors": 2015,
      "pool": 2016,
      "Ġsco": 2017,
      "sid": 2018,
      "PO": 2019,
      "Ser": 2020,
      "only": 2021,
      "Ġinit": 2022,
      "ning": 2023,
      "wise": 2024,
      "Ġreturns": 2025,
      "cies": 2026,
      "bl": 2027,
      "Ġslice": 2028,
      "ribu": 2029,
      "Ġerr": 2030,
      "enden": 2031,
      "Ġgoogle": 2032,
      "ĊĠĠĠĠĠĠĠĠĠĠĠĠĠĠĠĠĠĠĠĠĠĠĠĠĠĠĠĠĠĠĠĠĠ": 2033,
      "roadcast": 2034,
      "way": 2035,
      "lease": 2036,
      "Ġrows": 2037,
      "Ġheaders": 2038,
      "TE": 2039,
      "ING": 2040,
      "counts": 2041,
      "Gener": 2042,
      "ince": 2043,
      "dev": 2044,
      "Ġstack": 2045,
      "Ġnormal": 2046,
      "peline": 2047,
      "Ġsequence": 2048,
      "Ġworker": 2049,
      "over": 2050,
      "Ġreq": 2051,
      "Ġport": 2052,
      "side": 2053,
      "Ġparameter": 2054,
      "build": 2055,
      "uff": 2056,
      "Ġdrop": 2057,
      "older": 2058,
      "configs": 2059,
      "####": 2060,
      "=-": 2061,
      "htt": 2062,
      "imension": 2063,
      "task": 2064,
      "warn": 2065,
      "parameters": 2066,
      "has": 2067,
      "Ġprovi": 2068,
      "pare": 2069,
      "Ġcontent": 2070,
      "Ġepoch": 2071,
      "Ġwrap": 2072,
      "opt": 2073,
      "transpose": 2074,
      "plic": 2075,
      "åı": 2076,
      "ĠV": 2077,
      "post": 2078,
      "cul": 2079,
      "Ġnd": 2080,
      "led": 2081,
      "Ġ10": 2082,
      "Ġbecause": 2083,
      "\"].": 2084,
      "ny": 2085,
      "ence": 2086,
      "Ġ----------": 2087,
      "Client": 2088,
      "Ġold": 2089,
      "perties": 2090,
      "Ġqu": 2091,
      "decoder": 2092,
      "orig": 2093,
      "extend": 2094,
      "Ġchunk": 2095,
      "Ġmetric": 2096,
      "relative": 2097,
      "serial": 2098,
      "results": 2099,
      "abs": 2100,
      "Ġglobal": 2101,
      "paths": 2102,
      "Ġcontext": 2103,
      "lr": 2104,
      "lint": 2105,
      "ple": 2106,
      "Ġwhere": 2107,
      "ĠAt": 2108,
      "zip": 2109,
      "Ġpage": 2110,
      "sible": 2111,
      "present": 2112,
      "16": 2113,
      "mplement": 2114,
      "Request": 2115,
      "Context": 2116,
      "Ġtest": 2117,
      "'),": 2118,
      "axes": 2119,
      "Exception": 2120,
      "quirement": 2121,
      "ilable": 2122,
      "Ġwhe": 2123,
      "ĠSe": 2124,
      "validate": 2125,
      "oi": 2126,
      "Ġthere": 2127,
      "Ġhelp": 2128,
      "hs": 2129,
      "kv": 2130,
      "Ġbias": 2131,
      "tree": 2132,
      "stock": 2133,
      "rol": 2134,
      "ctionary": 2135,
      "dense": 2136,
      "pandas": 2137,
      "fields": 2138,
      "sql": 2139,
      "Ġlimit": 2140,
      "hed": 2141,
      "By": 2142,
      "Iter": 2143,
      "ffix": 2144,
      "description": 2145,
      "Ġproto": 2146,
      "Ġpylint": 2147,
      "Ġmar": 2148,
      "argument": 2149,
      "arrays": 2150,
      "Ġwarning": 2151,
      "dient": 2152,
      "Ġnumpy": 2153,
      "generate": 2154,
      "Se": 2155,
      "Ġrequi": 2156,
      "Ġelement": 2157,
      "Ġsc": 2158,
      "Ġwas": 2159,
      "ĊĠĠĠĠĠĠĠĠĠĠĠĠĠĠĠĠĠĠĠĠĠĠĠĠĠĠĠĠĠĠĠĠĠĠĠĠĠĠ": 2160,
      "tributes": 2161,
      "Ġoperator": 2162,
      ".')": 2163,
      "mote": 2164,
      "Ġfind": 2165,
      "google": 2166,
      "parameter": 2167,
      "Ġweight": 2168,
      "æľ": 2169,
      "tile": 2170,
      "loop": 2171,
      "Ġcallback": 2172,
      "Ġoriginal": 2173,
      "if": 2174,
      "nown": 2175,
      "ync": 2176,
      "Ġbin": 2177,
      "scores": 2178,
      "Ġpl": 2179,
      "Ġvi": 2180,
      "vious": 2181,
      "rt": 2182,
      "reset": 2183,
      "Ġstop": 2184,
      "tom": 2185,
      "Ġactivation": 2186,
      "Po": 2187,
      "pli": 2188,
      "uery": 2189,
      "ends": 2190,
      "proto": 2191,
      "ister": 2192,
      "Ġroot": 2193,
      "samples": 2194,
      "verage": 2195,
      "chedule": 2196,
      "Ġwrite": 2197,
      "stru": 2198,
      "chunk": 2199,
      "transform": 2200,
      "Ġdon": 2201,
      "tension": 2202,
      "trained": 2203,
      "Time": 2204,
      "Ġå": 2205,
      "DI": 2206,
      "ud": 2207,
      "Ġter": 2208,
      "Ġschema": 2209,
      "Ġcount": 2210,
      "Ġbefore": 2211,
      "levels": 2212,
      "maining": 2213,
      "print": 2214,
      "Ġfuture": 2215,
      "round": 2216,
      "ission": 2217,
      "lon": 2218,
      "schema": 2219,
      "ross": 2220,
      "ĠSt": 2221,
      "import": 2222,
      "Ġpas": 2223,
      "Ġawait": 2224,
      "root": 2225,
      "Ġalready": 2226,
      "Ġmetrics": 2227,
      "Ġexample": 2228,
      "asset": 2229,
      "Convert": 2230,
      "]):": 2231,
      "til": 2232,
      "Ġep": 2233,
      "hash": 2234,
      "ä»": 2235,
      "ĠJ": 2236,
      "internal": 2237,
      "Ġdimension": 2238,
      "Ġbytes": 2239,
      "Ġignore": 2240,
      "AN": 2241,
      "CE": 2242,
      "afe": 2243,
      "ift": 2244,
      "orage": 2245,
      "Ġresol": 2246,
      "ĠUn": 2247,
      "Ġindexer": 2248,
      "Ġtask": 2249,
      "Ġsent": 2250,
      "select": 2251,
      "Ġinplace": 2252,
      "Ġdt": 2253,
      "Ġchild": 2254,
      "Ġjob": 2255,
      "Ġafter": 2256,
      "disc": 2257,
      "kernel": 2258,
      "area": 2259,
      "window": 2260,
      "ĊĠĠĠĠĠĠĠĠĠĠĠĠ": 2261,
      "Ġpri": 2262,
      "quee": 2263,
      "Ġfinal": 2264,
      "TTP": 2265,
      "**": 2266,
      "SI": 2267,
      "repr": 2268,
      "RL": 2269,
      "ĊĠĠĠĠĠĠĠĠĠĠĠĠĠĠĠĠĠĠĠĠĠĠĠĠĠĠĠĠĠĠĠĠĠĠĠĠĠĠĠĠĠĠ": 2270,
      "generator": 2271,
      "dered": 2272,
      "erce": 2273,
      "script": 2274,
      "Ġfound": 2275,
      "numpy": 2276,
      "Ġdirectory": 2277,
      "Ġ'.": 2278,
      "uffle": 2279,
      "100": 2280,
      "TER": 2281,
      "amma": 2282,
      "Ġenviron": 2283,
      "grads": 2284,
      "99": 2285,
      "vol": 2286,
      "Ġ8": 2287,
      "Ġattr": 2288,
      "Ġits": 2289,
      "Ġrepresent": 2290,
      "Ġmissing": 2291,
      "expr": 2292,
      "Ġscale": 2293,
      "utor": 2294,
      "ustom": 2295,
      "Ġchannel": 2296,
      "silon": 2297,
      "bar": 2298,
      "remove": 2299,
      "child": 2300,
      "tract": 2301,
      "images": 2302,
      "delete": 2303,
      "ĠAr": 2304,
      "ving": 2305,
      "æķ": 2306,
      "ature": 2307,
      "Ġdel": 2308,
      "Ġpolicy": 2309,
      "AB": 2310,
      "hot": 2311,
      "infer": 2312,
      "Ġtz": 2313,
      "ampl": 2314,
      "asic": 2315,
      "Ġpassed": 2316,
      "fname": 2317,
      "iod": 2318,
      "where": 2319,
      "policy": 2320,
      "logical": 2321,
      "queeze": 2322,
      "auth": 2323,
      "yle": 2324,
      "ather": 2325,
      "mapping": 2326,
      "Ġdropout": 2327,
      "Ġthem": 2328,
      "directory": 2329,
      "Ġtypes": 2330,
      "Ġheight": 2331,
      "Ġposition": 2332,
      "Pre": 2333,
      "mx": 2334,
      "Ġar": 2335,
      "allow": 2336,
      "ops": 2337,
      "option": 2338,
      "Ġexception": 2339,
      "Ġbuild": 2340,
      "ĊĠĠĠĠĠĠĠĠĠĠĠĠĠĠĠĠĠĠĠĠĠĠĠĠĠĠĠĠĠĠĠĠĠĠĠĠĠ": 2341,
      "transformer": 2342,
      "Ġprovided": 2343,
      "hp": 2344,
      "Ġembedding": 2345,
      "frames": 2346,
      "Me": 2347,
      "mul": 2348,
      "Ġaux": 2349,
      "ili": 2350,
      "tmp": 2351,
      "Ġstream": 2352,
      "Ġthan": 2353,
      "forward": 2354,
      "location": 2355,
      "AD": 2356,
      "host": 2357,
      "ndim": 2358,
      "Ġattrs": 2359,
      "Ġrel": 2360,
      "lags": 2361,
      "Ġevalu": 2362,
      "ĠOptional": 2363,
      "Path": 2364,
      "empty": 2365,
      "page": 2366,
      "dition": 2367,
      "ENT": 2368,
      "Ġvalidate": 2369,
      "beta": 2370,
      "future": 2371,
      "uint": 2372,
      "Ġevent": 2373,
      "nodes": 2374,
      "ĠParameters": 2375,
      "({": 2376,
      "EL": 2377,
      "ose": 2378,
      "uild": 2379,
      "Ġ12": 2380,
      "ility": 2381,
      "Ġmer": 2382,
      "ĠMulti": 2383,
      "Ġjust": 2384,
      "ribution": 2385,
      "PU": 2386,
      "java": 2387,
      "sparse": 2388,
      "yper": 2389,
      "Ġaxes": 2390,
      "itor": 2391,
      "Series": 2392,
      "adjust": 2393,
      "conds": 2394,
      "pert": 2395,
      "formation": 2396,
      "Ġoptions": 2397,
      "To": 2398,
      "fg": 2399,
      "disp": 2400,
      "very": 2401,
      "Ġimages": 2402,
      "series": 2403,
      "archive": 2404,
      "Ġwarnings": 2405,
      "\"])": 2406,
      "Check": 2407,
      "pus": 2408,
      "example": 2409,
      "Ġensure": 2410,
      "Ġitems": 2411,
      "iden": 2412,
      "oid": 2413,
      "Ġsign": 2414,
      "parts": 2415,
      "Ġ(\"": 2416,
      "Ġconst": 2417,
      "Ġbest": 2418,
      "GE": 2419,
      "mod": 2420,
      "learn": 2421,
      "Ġinte": 2422,
      "filters": 2423,
      "checkpoint": 2424,
      "(-": 2425,
      "cum": 2426,
      "Ġlines": 2427,
      "Ġelements": 2428,
      "ctype": 2429,
      "entries": 2430,
      "Ġlogits": 2431,
      "span": 2432,
      "Ġlib": 2433,
      "Ġchange": 2434,
      "Int": 2435,
      "wo": 2436,
      "yload": 2437,
      "las": 2438,
      "Ġ[\"": 2439,
      "stimator": 2440,
      "go": 2441,
      "gment": 2442,
      "Table": 2443,
      "cen": 2444,
      "install": 2445,
      "Ġbet": 2446,
      "stem": 2447,
      "missing": 2448,
      "part": 2449,
      "categories": 2450,
      "DAT": 2451,
      "UN": 2452,
      "gfile": 2453,
      "Ġfreq": 2454,
      "unit": 2455,
      "exception": 2456,
      "Ġdest": 2457,
      "Ġhash": 2458,
      "sm": 2459,
      "spark": 2460,
      "atches": 2461,
      "gest": 2462,
      "aults": 2463,
      "cmd": 2464,
      "Ġlink": 2465,
      "Ġfull": 2466,
      "derr": 2467,
      "ĠDate": 2468,
      "moe": 2469,
      "package": 2470,
      "Ġstrides": 2471,
      "->": 2472,
      "Ġday": 2473,
      "fier": 2474,
      "bose": 2475,
      "Ġoptimizer": 2476,
      "Ġtransformer": 2477,
      "Ġoperation": 2478,
      "decay": 2479,
      "examples": 2480,
      "cheme": 2481,
      "full": 2482,
      "Ġstd": 2483,
      "Ġblocks": 2484,
      "uri": 2485,
      "pair": 2486,
      "skip": 2487,
      "Ġ25": 2488,
      "Ġshow": 2489,
      "used": 2490,
      "Ġtmp": 2491,
      "Ġwant": 2492,
      "Ġmod": 2493,
      "vices": 2494,
      "Ġpred": 2495,
      "Ġdictionary": 2496,
      "Stream": 2497,
      "tings": 2498,
      "http": 2499,
      "element": 2500,
      "ï¼": 2501,
      "Ġed": 2502,
      "html": 2503,
      "Ġstatus": 2504,
      "observ": 2505,
      "Ġoffset": 2506,
      "Dict": 2507,
      "warning": 2508,
      "Ġasset": 2509,
      "Ġraw": 2510,
      "market": 2511,
      "angu": 2512,
      "tpu": 2513,
      "Ġinfer": 2514,
      "Ġwindow": 2515,
      "ĠDict": 2516,
      "ĊĠĠĠĠĠĠĠĠĠĠĠĠĠĠĠĠĠĠĠĠĠĠĠĠĠĠĠĠĠĠĠĠĠĠĠĠĠĠĠĠĠĠĠĠĠĠĠĠĠĠĠĠĠĠĠĠĠĠĠĠĠĠĠĠĠĠĠĠĠĠĠĠĠĠĠĠĠĠĠĠ": 2517,
      "Ġobjects": 2518,
      "Ġword": 2519,
      "anguage": 2520,
      "The": 2521,
      "duce": 2522,
      "equal": 2523,
      "nx": 2524,
      "su": 2525,
      "Ġremove": 2526,
      "ully": 2527,
      "ished": 2528,
      "thing": 2529,
      "ĊĠĠĠĠĠĠĠĠĠĠĠĠĠĠĠĠĠĠĠĠĠĠĠĠĠĠĠĠĠĠĠĠĠĠĠĠĠĠĠĠĠĠĠ": 2530,
      "']:": 2531,
      "Ġdisp": 2532,
      "Ġ&": 2533,
      "helper": 2534,
      "Ġsix": 2535,
      "atio": 2536,
      "CO": 2537,
      "Ġ'%": 2538,
      "Ġ[-": 2539,
      "Ġui": 2540,
      "mt": 2541,
      "stalled": 2542,
      "Ġapi": 2543,
      "direct": 2544,
      "experiment": 2545,
      "question": 2546,
      "Ġiterator": 2547,
      "ĠKeyError": 2548,
      "Ġour": 2549,
      "change": 2550,
      "mber": 2551,
      "Ġdocument": 2552,
      "ored": 2553,
      "čĊĠĠĠĠĠĠĠĠĠĠĠĠĠĠĠ": 2554,
      "gex": 2555,
      "ĊĠĠĠĠĠĠĠĠĠĠĠĠĠĠĠĠĠĠĠĠĠĠĠĠĠĠĠĠĠĠĠĠĠĠĠĠĠĠĠĠĠĠĠĠ": 2556,
      "points": 2557,
      "Ap": 2558,
      "handler": 2559,
      "sep": 2560,
      "Ġ\".": 2561,
      "Ġloc": 2562,
      "Ġargument": 2563,
      "ategorical": 2564,
      "\"),": 2565,
      "can": 2566,
      "og": 2567,
      "Ġhost": 2568,
      "ĊĠĠĠĠĠĠĠĠĠĠĠĠĠĠĠĠĠĠĠĠĠĠĠĠĠĠĠĠĠĠĠĠĠĠĠĠĠĠĠĠĠ": 2569,
      "resol": 2570,
      "async": 2571,
      "inte": 2572,
      "Ġentry": 2573,
      "ween": 2574,
      "iled": 2575,
      "Ġmerge": 2576,
      "ord": 2577,
      "assign": 2578,
      "Ġfields": 2579,
      "compute": 2580,
      "body": 2581,
      "eck": 2582,
      "gpu": 2583,
      "cookie": 2584,
      "locs": 2585,
      "ols": 2586,
      "iteration": 2587,
      "ĠRun": 2588,
      "tle": 2589,
      "Ġtar": 2590,
      "groups": 2591,
      "Log": 2592,
      "SU": 2593,
      "tlen": 2594,
      "ves": 2595,
      "sted": 2596,
      "fic": 2597,
      "Ġcols": 2598,
      "true": 2599,
      "timestamp": 2600,
      "filepath": 2601,
      "aries": 2602,
      "[:-": 2603,
      "best": 2604,
      "period": 2605,
      "tleneck": 2606,
      "ek": 2607,
      "may": 2608,
      "(**": 2609,
      "Ad": 2610,
      "cluster": 2611,
      "history": 2612,
      "ide": 2613,
      "Ġbot": 2614,
      "Ġcomb": 2615,
      "words": 2616,
      "matrix": 2617,
      "softmax": 2618,
      "Load": 2619,
      "LIB": 2620,
      "Ġinteger": 2621,
      "flatten": 2622,
      "squeeze": 2623,
      "problem": 2624,
      "__(": 2625,
      "iterator": 2626,
      "ĊĠĠĠĠĠĠĠĠĠĠĠĠĠĠĠĠĠĠĠĠĠĠĠĠĠĠĠĠĠĠĠĠĠĠĠĠĠĠĠĠĠĠĠĠĠĠĠĠĠĠĠĠ": 2627,
      "Ġpackage": 2628,
      "now": 2629,
      "Ġvector": 2630,
      "connect": 2631,
      "Dataset": 2632,
      "Batch": 2633,
      "Norm": 2634,
      "ĊĊĠĠĠĠĠ": 2635,
      "lex": 2636,
      "Ġref": 2637,
      "Ġlocation": 2638,
      "acy": 2639,
      "ĠRDD": 2640,
      "lation": 2641,
      "Ġ6": 2642,
      "ater": 2643,
      "hes": 2644,
      "exc": 2645,
      "Ġparts": 2646,
      "agent": 2647,
      "Ġzer": 2648,
      "gate": 2649,
      "plot": 2650,
      "Ġtemplate": 2651,
      "Id": 2652,
      "Ġbody": 2653,
      "Ġarguments": 2654,
      "stats": 2655,
      "Ġcompute": 2656,
      "maybe": 2657,
      "Le": 2658,
      "flat": 2659,
      "means": 2660,
      "partition": 2661,
      "lengths": 2662,
      "unique": 2663,
      "_,": 2664,
      "clip": 2665,
      "Ġdb": 2666,
      "properties": 2667,
      "Ġsearch": 2668,
      "Ġselect": 2669,
      "GB": 2670,
      "ension": 2671,
      "predict": 2672,
      "zero": 2673,
      "binary": 2674,
      "24": 2675,
      "Net": 2676,
      "Ġbuf": 2677,
      "color": 2678,
      "csv": 2679,
      "rand": 2680,
      "Ġfre": 2681,
      "parser": 2682,
      "timedelta": 2683,
      "ĊĠĠĠĠĠĠĠĠĠĠĠĠĠĠĠĠĠĠĠĠĠĠĠĠĠĠĠĠĠĠĠĠĠĠĠĠĠĠĠĠĠĠĠĠĠĠĠĠĠ": 2684,
      "constant": 2685,
      "endswith": 2686,
      "TO": 2687,
      "]}": 2688,
      "none": 2689,
      "sup": 2690,
      "Ġsince": 2691,
      "Ġpartition": 2692,
      "ĠDe": 2693,
      "Ġdiffe": 2694,
      "ĠAPI": 2695,
      "Ġ|": 2696,
      "unds": 2697,
      "Ġinclude": 2698,
      "sive": 2699,
      "Ġcoun": 2700,
      "ĠCo": 2701,
      "Ġdim": 2702,
      "endencies": 2703,
      "GS": 2704,
      "æĹ": 2705,
      "stm": 2706,
      "Ġtree": 2707,
      "Ġab": 2708,
      "losses": 2709,
      "cision": 2710,
      "begin": 2711,
      "Partitions": 2712,
      "æķ°": 2713,
      "Ac": 2714,
      "mission": 2715,
      "åĪ": 2716,
      "less": 2717,
      "Ġob": 2718,
      "ell": 2719,
      "Ġconcat": 2720,
      "progress": 2721,
      "ĠPython": 2722,
      "oice": 2723,
      "Com": 2724,
      "ng": 2725,
      "enc": 2726,
      "anti": 2727,
      "ĠAttribute": 2728,
      "25": 2729,
      "vis": 2730,
      "yn": 2731,
      "ular": 2732,
      "ĊĠĠĠĠĠĠĠĠĠĠĠĠĠĠĠĠĠĠĠĠĠĠĠĠĠĠĠĠĠĠĠĠĠĠĠĠĠĠĠĠĠĠĠĠĠ": 2733,
      "ĠBase": 2734,
      "...": 2735,
      "Up": 2736,
      "down": 2737,
      "orts": 2738,
      "Ġtwo": 2739,
      "arm": 2740,
      "Ġdone": 2741,
      "logger": 2742,
      "ML": 2743,
      "splits": 2744,
      "Query": 2745,
      "pattern": 2746,
      "Ġcell": 2747,
      "med": 2748,
      "ĠTime": 2749,
      "answer": 2750,
      "ĠAny": 2751,
      "ĠNot": 2752,
      "postprocess": 2753,
      "Or": 2754,
      "meta": 2755,
      "Ġhow": 2756,
      "Ġencode": 2757,
      "Ġrouting": 2758,
      "Ġgenerate": 2759,
      "discre": 2760,
      "dl": 2761,
      "pip": 2762,
      "wh": 2763,
      "ams": 2764,
      "Ġbased": 2765,
      "predictions": 2766,
      "ilities": 2767,
      "Ġlike": 2768,
      "Ġmtf": 2769,
      "preprocess": 2770,
      "Ġcolor": 2771,
      "Ġoption": 2772,
      "merge": 2773,
      "TH": 2774,
      "final": 2775,
      "ial": 2776,
      "ĊĊĠĠĠĠĠĠĠĠĠĠĠĠĠĠĠĠĠĠĠ": 2777,
      "Ġnow": 2778,
      "Ġpattern": 2779,
      "uplic": 2780,
      "variables": 2781,
      "bottom": 2782,
      "Run": 2783,
      "broadcast": 2784,
      "ui": 2785,
      "inds": 2786,
      "anch": 2787,
      "roll": 2788,
      "errors": 2789,
      "byref": 2790,
      "pc": 2791,
      "Ġna": 2792,
      "Ġpip": 2793,
      "Ġapply": 2794,
      "ignore": 2795,
      "aux": 2796,
      "Ġreplace": 2797,
      "cel": 2798,
      "address": 2799,
      "cape": 2800,
      "'].": 2801,
      "Ġwork": 2802,
      "uniform": 2803,
      "ctypes": 2804,
      "Per": 2805,
      "ink": 2806,
      "reward": 2807,
      "isode": 2808,
      "Ġkv": 2809,
      "Ġadjust": 2810,
      "stead": 2811,
      "price": 2812,
      "Text": 2813,
      "äº": 2814,
      "Ġextract": 2815,
      "Ġfilters": 2816,
      "stdout": 2817,
      "real": 2818,
      "extension": 2819,
      "Ġ{\"": 2820,
      "ĊĠĠĠĠĠĠĠĠĠĠĠĠĠĠĠĠĠĠĠĠĠĠĠĠĠĠĠĠĠĠĠĠĠĠĠĠĠĠĠĠĠĠĠĠĠĠĠĠĠĠ": 2821,
      "Ġmapping": 2822,
      "LAGS": 2823,
      "Ġexisting": 2824,
      "structor": 2825,
      "Form": 2826,
      "SC": 2827,
      "Ġ@": 2828,
      "Ġscore": 2829,
      "Ġexc": 2830,
      "ĠSpark": 2831,
      "Ġpool": 2832,
      "Ġpadded": 2833,
      "Add": 2834,
      "Ġass": 2835,
      "ckets": 2836,
      "Ġextension": 2837,
      "Ġsupported": 2838,
      ")->": 2839,
      "Ch": 2840,
      "NAME": 2841,
      "TRA": 2842,
      "dr": 2843,
      "writer": 2844,
      "Ġnn": 2845,
      "siz": 2846,
      "Ġproblem": 2847,
      "Ġopt": 2848,
      "Ġalpha": 2849,
      "gram": 2850,
      "Ġ},": 2851,
      "sorted": 2852,
      "ransformer": 2853,
      "Ġava": 2854,
      "cap": 2855,
      "event": 2856,
      "entro": 2857,
      "Ġprevious": 2858,
      "pass": 2859,
      "Ġmon": 2860,
      "ĊĠĠĠĠĠĠĠĠĠĠĠĠĠĠĠĠĠĠĠĠĠĠĠĠĠĠĠĠĠĠĠĠĠĠĠĠĠĠĠĠĠĠĠĠĠĠĠ": 2861,
      "tags": 2862,
      "Ġloop": 2863,
      "Ġmultiple": 2864,
      "fun": 2865,
      "greg": 2866,
      "redis": 2867,
      "thread": 2868,
      "Ġmeta": 2869,
      "ĠAttributeError": 2870,
      "ptr": 2871,
      "stride": 2872,
      "Ġmore": 2873,
      "ily": 2874,
      "Ġbeam": 2875,
      "ics": 2876,
      "').": 2877,
      "bound": 2878,
      "ĊĠĠĠĠĠĠĠĠĠĠĠĠĠĠĠĠĠĠĠĠĠĠĠĠĠĠĠĠĠĠĠĠĠĠĠĠĠĠĠĠĠĠĠĠĠĠĠĠĠĠĠĠĠ": 2879,
      "product": 2880,
      "vm": 2881,
      "Ġremaining": 2882,
      "respon": 2883,
      "ason": 2884,
      "iler": 2885,
      "Ġdatasource": 2886,
      "Ġdecoder": 2887,
      "Ġstates": 2888,
      "execute": 2889,
      "IO": 2890,
      "aded": 2891,
      "rule": 2892,
      "entry": 2893,
      "Ġcluster": 2894,
      "amo": 2895,
      "mmand": 2896,
      "discrete": 2897,
      "11": 2898,
      "CK": 2899,
      "Ġ),": 2900,
      "Ġtransform": 2901,
      "Ġdoesn": 2902,
      "Ġwhether": 2903,
      "Ġbetween": 2904,
      "Map": 2905,
      "Ġdatabase": 2906,
      "Ġentity": 2907,
      "ĠNDArray": 2908,
      "Ġarrays": 2909,
      "Ġunique": 2910,
      "Ġenvironment": 2911,
      "=_": 2912,
      "UM": 2913,
      "},": 2914,
      "Ġbeta": 2915,
      "Ġhandler": 2916,
      "ending": 2917,
      "Ġprob": 2918,
      "licit": 2919,
      "evalu": 2920,
      "extract": 2921,
      "Manager": 2922,
      "hell": 2923,
      "dients": 2924,
      "Ġpart": 2925,
      "Ġbeen": 2926,
      "builder": 2927,
      "ampling": 2928,
      "ho": 2929,
      "numeric": 2930,
      "ĠReturns": 2931,
      "inplace": 2932,
      "att": 2933,
      "sitions": 2934,
      "Ġ'_": 2935,
      "Ġpredict": 2936,
      "ĊĠĠĠĠĠĠĠĠĠĠĠĠĠĠĠĠĠĠĠĠĠĠĠĠĠĠĠĠĠĠĠĠĠĠĠĠĠĠĠĠĠĠĠĠĠĠĠĠĠĠĠ": 2937,
      "Ġbox": 2938,
      "Ġcorrect": 2939,
      "Ġndarray": 2940,
      "ĠDatetime": 2941,
      "This": 2942,
      "done": 2943,
      "download": 2944,
      "fit": 2945,
      "insert": 2946,
      "Ġids": 2947,
      "Ġ*=": 2948,
      "Ġsepar": 2949,
      "ĊĠĠĠĠĠĠĠĠĠĠĠĠĠĠĠĠĠĠĠĠĠĠĠĠĠĠĠĠĠĠĠĠĠĠĠĠĠĠĠĠĠĠĠĠĠĠĠĠĠĠĠĠĠĠ": 2950,
      "ASE": 2951,
      "Split": 2952,
      "Ġactor": 2953,
      "Ġforce": 2954,
      "ither": 2955,
      "profile": 2956,
      "------": 2957,
      "masked": 2958,
      "ĠRes": 2959,
      "At": 2960,
      "FF": 2961,
      "Ġinstead": 2962,
      "Ġsamples": 2963,
      "ditional": 2964,
      "ĠFor": 2965,
      "INTER": 2966,
      "Ġpython": 2967,
      "====": 2968,
      "Ġhttps": 2969,
      "identity": 2970,
      "spect": 2971,
      "lections": 2972,
      "Ġrest": 2973,
      "culate": 2974,
      "ï¼Į": 2975,
      "driver": 2976,
      "pid": 2977,
      "sv": 2978,
      "wd": 2979,
      "send": 2980,
      "Ġfa": 2981,
      "Ġrequire": 2982,
      "active": 2983,
      "Ġinitializer": 2984,
      "dot": 2985,
      "manager": 2986,
      "dic": 2987,
      "ĊĠĠĠĠĠĠĠĠĠĠĠĠĠĠĠĠĠĠĠĠĠĠĠĠĠĠĠĠĠĠĠĠĠĠĠĠĠĠĠĠĠĠĠĠĠĠ": 2988,
      "vec": 2989,
      "layout": 2990,
      "perty": 2991,
      "transport": 2992,
      "src": 2993,
      "ĠK": 2994,
      "Ġauto": 2995,
      "atist": 2996,
      "Info": 2997,
      "Ġsuper": 2998,
      "Ġrequired": 2999,
      "kind": 3000,
      "raise": 3001,
      "Ġthey": 3002,
      "ĠCol": 3003,
      "ĠAs": 3004,
      "ĠArg": 3005,
      "rep": 3006,
      "sync": 3007,
      "pt": 3008,
      "ret": 3009,
      "let": 3010,
      "arguments": 3011,
      "prec": 3012,
      "collection": 3013,
      "entropy": 3014,
      "my": 3015,
      "uid": 3016,
      "rest": 3017,
      "perts": 3018,
      "proc": 3019,
      "ĊĠĠĠĠĠĠĠĠĠĠĠĠĠĠĠĠĠĠĠĠĠĠĠĠĠĠĠĠĠĠĠĠĠĠĠĠĠĠĠĠĠĠĠĠĠĠĠĠĠĠĠĠĠĠĠĠĠĠĠ": 3020,
      "Ġpair": 3021,
      "ective": 3022,
      "Ġsupport": 3023,
      "ession": 3024,
      "__,": 3025,
      "Ġcheckpoint": 3026,
      "Ġstatement": 3027,
      "eed": 3028,
      "mut": 3029,
      "ination": 3030,
      "invalid": 3031,
      "title": 3032,
      "lots": 3033,
      "Ġform": 3034,
      "Ġfix": 3035,
      "take": 3036,
      "mount": 3037,
      "okup": 3038,
      "Ġcharact": 3039,
      "plication": 3040,
      "ĠRuntime": 3041,
      "MO": 3042,
      "ik": 3043,
      "year": 3044,
      "Ġcmd": 3045,
      "()[": 3046,
      "Ġexpected": 3047,
      "Ġthread": 3048,
      "tect": 3049,
      "Ġ{}\".": 3050,
      "quences": 3051,
      "ĠHTTP": 3052,
      "ART": 3053,
      "Ġspan": 3054,
      "reshold": 3055,
      "04": 3056,
      "VAL": 3057,
      "Warning": 3058,
      "null": 3059,
      "section": 3060,
      "org": 3061,
      "Ġserial": 3062,
      "ript": 3063,
      "compress": 3064,
      "complete": 3065,
      "armup": 3066,
      "Ġjoin": 3067,
      "reader": 3068,
      "desc": 3069,
      "Ġamount": 3070,
      "edge": 3071,
      "verter": 3072,
      "resources": 3073,
      "cords": 3074,
      "Ġmaybe": 3075,
      "amount": 3076,
      "`,": 3077,
      "Ġserver": 3078,
      "engine": 3079,
      "Ġnumeric": 3080,
      "Ġdownload": 3081,
      "defined": 3082,
      "cker": 3083,
      "connection": 3084,
      "tem": 3085,
      "ĊĠĠĠĠĠĠĠĠĠĠĠĠĠĠĠĠĠĠĠĠĠĠĠĠĠĠĠĠĠĠĠĠĠĠĠĠĠĠĠĠĠĠĠĠĠĠĠĠĠĠĠĠĠĠĠĠĠĠ": 3086,
      "Ġdir": 3087,
      "cally": 3088,
      "Ġsummary": 3089,
      "Base": 3090,
      "CON": 3091,
      "long": 3092,
      "devices": 3093,
      "Ġnan": 3094,
      "Ġfn": 3095,
      "Read": 3096,
      "ĠSet": 3097,
      "Ġpaths": 3098,
      "Ġvariables": 3099,
      "\"))": 3100,
      "Met": 3101,
      "Writer": 3102,
      "safe": 3103,
      "ĠĠĠĠĊĠĠĠ": 3104,
      "Ġ\"%": 3105,
      "Ġparsed": 3106,
      "000": 3107,
      "account": 3108,
      "vents": 3109,
      "Ġcannot": 3110,
      "mplemented": 3111,
      "torch": 3112,
      "æĺ": 3113,
      "requi": 3114,
      "require": 3115,
      "()))": 3116,
      "Ġ\"_": 3117,
      "Valid": 3118,
      "Format": 3119,
      "=%": 3120,
      "fa": 3121,
      "fc": 3122,
      "istr": 3123,
      "sl": 3124,
      "ences": 3125,
      "Ġsure": 3126,
      "Ġscope": 3127,
      "original": 3128,
      "kvstore": 3129,
      "Bu": 3130,
      "brain": 3131,
      "db": 3132,
      "squ": 3133,
      "lem": 3134,
      "Ġdriver": 3135,
      "lices": 3136,
      "app": 3137,
      "Ġattribute": 3138,
      "Ġbucket": 3139,
      "Ġgenerator": 3140,
      "Image": 3141,
      "obs": 3142,
      "dest": 3143,
      "urls": 3144,
      "Ġinformation": 3145,
      "Ġsim": 3146,
      "abel": 3147,
      "Ġlogic": 3148,
      "Ġyou": 3149,
      "ĠMultiIndex": 3150,
      "integer": 3151,
      "Ġavailable": 3152,
      "Hel": 3153,
      "Handler": 3154,
      "eded": 3155,
      "gative": 3156,
      "Ġcla": 3157,
      "ĠAB": 3158,
      "shot": 3159,
      "atistics": 3160,
      "MX": 3161,
      "Offset": 3162,
      "writ": 3163,
      "rewards": 3164,
      "Ġreference": 3165,
      "Ġsid": 3166,
      "Ġ[[": 3167,
      "bucket": 3168,
      "Ġonnx": 3169,
      "Ġcurr": 3170,
      "compat": 3171,
      "Ġscalar": 3172,
      "ashboard": 3173,
      "Ġhttp": 3174,
      "API": 3175,
      "big": 3176,
      "estimator": 3177,
      "speci": 3178,
      "Ġmeans": 3179,
      "Ġ{[": 3180,
      "Ġus": 3181,
      "ĠAdd": 3182,
      "trade": 3183,
      "Ġstrings": 3184,
      "Ġpredictions": 3185,
      "constructor": 3186,
      "Config": 3187,
      "Ġboxes": 3188,
      "noise": 3189,
      "Ġclose": 3190,
      "_(": 3191,
      "jvm": 3192,
      "entity": 3193,
      "Ġcv": 3194,
      "diff": 3195,
      "fication": 3196,
      "vers": 3197,
      "ĊĠĠĠĠĠĠĠĠĠĠĠĠĠĠĠĠĠĠĠĠĠĠĠĠĠĠĠĠĠĠĠĠĠĠĠĠĠĠĠĠĠĠĠĠĠĠĠĠĠĠĠĠĠĠĠĠĠĠĠĠĠĠĠ": 3198,
      "prepare": 3199,
      "tensors": 3200,
      "document": 3201,
      "divid": 3202,
      "ech": 3203,
      "remote": 3204,
      "leted": 3205,
      "Ġfname": 3206,
      "Ġclip": 3207,
      "Ġevery": 3208,
      "lace": 3209,
      "database": 3210,
      "dtypes": 3211,
      "dirs": 3212,
      "latent": 3213,
      "ĠRuntimeError": 3214,
      "NDArray": 3215,
      "]['": 3216,
      "cut": 3217,
      "cent": 3218,
      "ccess": 3219,
      "gor": 3220,
      "rection": 3221,
      "peat": 3222,
      "ulary": 3223,
      "ooks": 3224,
      "Ġpossible": 3225,
      "dumps": 3226,
      "gorith": 3227,
      "]])": 3228,
      "known": 3229,
      "expected": 3230,
      ")).": 3231,
      "corator": 3232,
      "Ġperiod": 3233,
      "ĠEn": 3234,
      "embeddings": 3235,
      "Ġheads": 3236,
      "operation": 3237,
      "dividual": 3238,
      ".\"": 3239,
      "uous": 3240,
      "inv": 3241,
      "seconds": 3242,
      "Ġinstall": 3243,
      "partitions": 3244,
      "ulation": 3245,
      "Ġ\"\"": 3246,
      "Ġmain": 3247,
      "shards": 3248,
      "strings": 3249,
      "acher": 3250,
      "ways": 3251,
      "Ġrelative": 3252,
      "Trans": 3253,
      "case": 3254,
      "gg": 3255,
      "Ġrecord": 3256,
      "Ġ''": 3257,
      "ollow": 3258,
      "Ġresources": 3259,
      "ĊĠĠĠĠĠĠĠĠĠĠĠĠĠĠĠĠĠĠĠĠĠĠĠĠĠĠĠĠĠĠĠĠĠĠĠĠĠĠĠĠĠĠĠĠĠĠĠĠĠĠĠĠĠĠĠĠĠĠĠĠĠĠ": 3260,
      "Ġannot": 3261,
      "curr": 3262,
      "Ġpayload": 3263,
      "Ġdates": 3264,
      "signal": 3265,
      "Ġscores": 3266,
      "Ġwrapper": 3267,
      "Ġdifferent": 3268,
      "_%": 3269,
      "cl": 3270,
      "Ġsq": 3271,
      "Ġthese": 3272,
      "ckle": 3273,
      "Ġ-=": 3274,
      "Ġbegin": 3275,
      "ĠPro": 3276,
      "statement": 3277,
      "Ġunit": 3278,
      "normalize": 3279,
      "Ġzero": 3280,
      "istry": 3281,
      "Module": 3282,
      "bit": 3283,
      "the": 3284,
      "Ġ------": 3285,
      "Ġty": 3286,
      "Ġforward": 3287,
      "Ġexamples": 3288,
      "ĊĠĠĠĠĠĠĠĠĠĠĠĠĠĠĠĠĠĠĠĠĠĠĠĠĠĠĠĠĠĠĠĠĠĠĠĠĠĠĠĠĠĠĠĠĠĠĠĠĠĠĠĠĠĠĠĠĠ": 3289,
      "Ġtimestamp": 3290,
      "ĊĠĠĠĠĠĠĠĠĠĠĠĠĠĠĠĠĠĠĠĠĠĠĠĠĠĠĠĠĠĠĠĠĠĠĠĠĠĠĠĠĠĠĠĠĠĠĠĠĠĠĠĠĠĠĠĠĠĠĠĠĠĠĠĠĠĠĠĠĠĠĠ": 3291,
      "ĠURL": 3292,
      "Session": 3293,
      "ymbol": 3294,
      "Ġdown": 3295,
      "Ġ((": 3296,
      "ĊĠĠĠĠĠĠĠĠĠĠĠĠĠĠĠĠĠĠĠĠĠĠĠĠĠĠĠĠĠĠĠĠĠĠĠĠĠĠĠĠĠĠĠĠĠĠĠĠĠĠĠĠĠĠĠĠĠĠĠĠĠĠĠĠĠĠĠĠĠ": 3297,
      "ixin": 3298,
      "Ġtrade": 3299,
      "Ġsuffix": 3300,
      "cells": 3301,
      "ĠArguments": 3302,
      "15": 3303,
      "RI": 3304,
      "rict": 3305,
      "beam": 3306,
      "days": 3307,
      "Creates": 3308,
      "Ġepsilon": 3309,
      "Ġredis": 3310,
      "Ġauth": 3311,
      "sig": 3312,
      "asarray": 3313,
      "Ġseq": 3314,
      "ĠClient": 3315,
      "ĊĠĠĠĠĠĠĠĠĠĠĠĠĠĠĠĠĠĠĠĠĠĠĠĠĠĠĠĠĠĠĠĠĠĠĠĠĠĠĠĠĠĠĠĠĠĠĠĠĠĠĠĠĠĠĠ": 3316,
      "pipeline": 3317,
      "State": 3318,
      "Ġverbose": 3319,
      "Ġcallbacks": 3320,
      "ĠABC": 3321,
      "Handle": 3322,
      "pen": 3323,
      "ually": 3324,
      "lag": 3325,
      "Ġexpert": 3326,
      "Invalid": 3327,
      "Ġexpression": 3328,
      "Helper": 3329,
      "NN": 3330,
      "Not": 3331,
      "embed": 3332,
      "alive": 3333,
      "enate": 3334,
      "Ġeither": 3335,
      "Ġrv": 3336,
      "Ġ:]": 3337,
      "gradient": 3338,
      "Ġ...": 3339,
      "ugh": 3340,
      "NO": 3341,
      "Ġreuse": 3342,
      "atible": 3343,
      "Ġexists": 3344,
      "bject": 3345,
      "quency": 3346,
      "marker": 3347,
      "workers": 3348,
      "Ġobserv": 3349,
      "ocket": 3350,
      "Ġimp": 3351,
      "Ġreal": 3352,
      "construct": 3353,
      "endar": 3354,
      "Ġ).": 3355,
      "Ġsee": 3356,
      "backward": 3357,
      "As": 3358,
      "è¿": 3359,
      "Ġsrc": 3360,
      "atic": 3361,
      "kwds": 3362,
      "Ġcollections": 3363,
      "linear": 3364,
      "ĊĠĠĠĠĠĠĠĠĠĠĠĠĠĠĠĠĠĠĠĠĠĠĠĠĠĠĠĠĠĠĠĠĠĠĠĠĠĠĠĠĠĠĠĠĠĠĠĠĠĠĠĠĠĠĠĠĠĠĠĠĠĠĠĠĠĠĠĠĠĠĠĠĠĠ": 3365,
      "ooster": 3366,
      "Ġappro": 3367,
      "sqrt": 3368,
      "odalityType": 3369,
      "sidual": 3370,
      "########": 3371,
      "gb": 3372,
      "reference": 3373,
      "Ġreduce": 3374,
      "Ġclean": 3375,
      "Ġspace": 3376,
      "Ġgen": 3377,
      "ĊĠĠĠĠĠĠĠĠĠĠĠĠĠĠĠĠĠĠĠĠĠĠĠĠĠĠĠĠĠĠĠĠĠĠĠĠĠĠĠĠĠĠĠĠĠĠĠĠĠĠĠĠĠĠĠĠĠĠĠĠĠĠĠĠĠĠĠĠĠĠ": 3378,
      "Cal": 3379,
      "seed": 3380,
      "record": 3381,
      "ert": 3382,
      "stderr": 3383,
      "enti": 3384,
      "ensure": 3385,
      "comb": 3386,
      "Ġfig": 3387,
      "Ġreset": 3388,
      "Ġinternal": 3389,
      "Ġcre": 3390,
      "Ġboth": 3391,
      "ones": 3392,
      "Ġ',": 3393,
      "Ġgo": 3394,
      "ERS": 3395,
      "Ġdomain": 3396,
      "allel": 3397,
      "Cannot": 3398,
      "IS": 3399,
      "cpu": 3400,
      "stype": 3401,
      "Ġrule": 3402,
      "Ġprev": 3403,
      "access": 3404,
      "ategory": 3405,
      "expression": 3406,
      "END": 3407,
      "Ġtrace": 3408,
      "Ġtags": 3409,
      "Row": 3410,
      "blob": 3411,
      "gamma": 3412,
      "schedule": 3413,
      "tar": 3414,
      "Ġ>>": 3415,
      "ĠNum": 3416,
      "Ġmodels": 3417,
      "Ġrunning": 3418,
      "Ġavoid": 3419,
      ",)": 3420,
      "\\\\": 3421,
      "ling": 3422,
      "ws": 3423,
      "Ġactions": 3424,
      "lio": 3425,
      "rib": 3426,
      "folio": 3427,
      "Ġlosses": 3428,
      "Ġlr": 3429,
      "curity": 3430,
      "ttm": 3431,
      "TRAIN": 3432,
      "precated": 3433,
      "ED": 3434,
      "scheme": 3435,
      "zen": 3436,
      "attributes": 3437,
      "Ġput": 3438,
      "lick": 3439,
      "Ġtheir": 3440,
      "exts": 3441,
      "('%": 3442,
      "cessed": 3443,
      "moid": 3444,
      "Ġbuffer": 3445,
      "socket": 3446,
      "Ġcomput": 3447,
      "Found": 3448,
      "qa": 3449,
      "Ġæ": 3450,
      "Ġarchive": 3451,
      "ategy": 3452,
      "common": 3453,
      "closed": 3454,
      "alleli": 3455,
      "Ġagent": 3456,
      "sizes": 3457,
      "Ġ-------": 3458,
      "33": 3459,
      "No": 3460,
      "QL": 3461,
      "after": 3462,
      "dio": 3463,
      "didate": 3464,
      "ability": 3465,
      "Ġwithout": 3466,
      "ĠSparse": 3467,
      "ĠID": 3468,
      "Ġunder": 3469,
      "ĊĠĠĠĠĠĠĠĠĠĠĠĠĠĠĠĠĠĠĠĠĠĠĠĠĠĠĠĠĠĠĠĠĠĠĠĠĠĠĠĠĠĠĠĠĠĠĠĠĠĠĠĠĠĠĠĠĠĠĠĠĠĠĠĠĠĠĠĠĠĠĠĠĠ": 3470,
      "Ġattributes": 3471,
      "Ġtransport": 3472,
      "Ġactual": 3473,
      "Ġmodi": 3474,
      "Ġpipeline": 3475,
      "MP": 3476,
      "TI": 3477,
      "Train": 3478,
      "batches": 3479,
      "nap": 3480,
      "ini": 3481,
      "Ġfail": 3482,
      "Ġsm": 3483,
      "Ġbl": 3484,
      "probs": 3485,
      "proxy": 3486,
      "cept": 3487,
      "tials": 3488,
      "Ġlearning": 3489,
      "ĠLo": 3490,
      "Ġsym": 3491,
      "Parse": 3492,
      "\"\"\"": 3493,
      "categorical": 3494,
      "Ġ128": 3495,
      "same": 3496,
      "Ġind": 3497,
      "rough": 3498,
      "dime": 3499,
      "Ġcould": 3500,
      "Ġhigh": 3501,
      "olute": 3502,
      "ĠImage": 3503,
      "Ġlogical": 3504,
      "ĊĠĠĠĠĠĠĠĠĠĠĠĠĠĠĠĠĠĠĠĠĠĠĠĠĠĠĠĠĠĠĠĠĠĠĠĠĠĠĠĠĠĠĠĠĠĠĠĠĠĠĠĠĠĠĠĠĠĠĠĠĠĠĠĠĠ": 3505,
      "ĊĠĠĠĠĠĠĠĠĠĠĠĠĠĠĠĠĠĠĠĠĠĠĠĠĠĠĠĠĠĠĠĠĠĠĠĠĠĠĠĠĠĠĠĠĠĠĠĠĠĠĠĠĠĠĠĠĠĠĠĠĠĠĠĠĠĠ": 3506,
      "Ġcallable": 3507,
      "warmup": 3508,
      "lector": 3509,
      "Ġflat": 3510,
      "heel": 3511,
      "Ġprod": 3512,
      "ĠPer": 3513,
      "loads": 3514,
      "lush": 3515,
      "txt": 3516,
      "register": 3517,
      "clean": 3518,
      "bottleneck": 3519,
      "centile": 3520,
      "dimension": 3521,
      "17": 3522,
      "OP": 3523,
      "ĠY": 3524,
      "leep": 3525,
      "Ġreward": 3526,
      "Ġreverse": 3527,
      "Ġsparse": 3528,
      "Ġdum": 3529,
      "Ġmut": 3530,
      "Ġmost": 3531,
      "Ġ'',": 3532,
      "Ġhyper": 3533,
      "Ġexit": 3534,
      "ĊĠĠĠĠĠĠĠĠĠĠĠĠĠĠĠĠĠĠĠĠĠĠĠĠĠĠĠĠĠĠĠĠĠĠĠĠĠĠĠĠĠĠĠĠĠĠĠĠĠĠĠĠĠĠĠĠĠĠĠĠĠĠĠĠĠĠĠĠĠĠĠĠĠĠĠĠ": 3535,
      "ĊĠĠĠĠĠĠĠĠĠĠĠĠĠĠĠĠĠĠĠĠĠĠĠĠĠĠĠĠĠĠĠĠĠĠĠĠĠĠĠĠĠĠĠĠĠĠĠĠĠĠĠĠĠĠĠĠĠĠĠĠĠĠĠĠĠĠĠĠĠĠĠĠĠĠĠ": 3536,
      "akes": 3537,
      "Comp": 3538,
      "month": 3539,
      "gt": 3540,
      "Ġentries": 3541,
      "Ġremo": 3542,
      "routing": 3543,
      "sitive": 3544,
      "uler": 3545,
      "Ġ:,": 3546,
      "Ġsecond": 3547,
      "ĠCheck": 3548,
      "cessary": 3549,
      "trace": 3550,
      "Ġprediction": 3551,
      "display": 3552,
      "napshot": 3553,
      "Call": 3554,
      "}\".": 3555,
      "arge": 3556,
      "Ġinstalled": 3557,
      "Ġcap": 3558,
      "upper": 3559,
      "ariance": 3560,
      "curacy": 3561,
      "Process": 3562,
      "Ġcorrespon": 3563,
      "'re": 3564,
      "Implemented": 3565,
      "rm": 3566,
      "udio": 3567,
      "style": 3568,
      "Ġtake": 3569,
      "abilities": 3570,
      "assets": 3571,
      "tail": 3572,
      "dentials": 3573,
      "namespace": 3574,
      "sys": 3575,
      "ĠDataset": 3576,
      "dependencies": 3577,
      "Ġnodes": 3578,
      "Ġnormalize": 3579,
      "Pool": 3580,
      "gorithm": 3581,
      "SH": 3582,
      "SON": 3583,
      "patch": 3584,
      "xt": 3585,
      "release": 3586,
      "Ġip": 3587,
      "ĠTensor": 3588,
      "ancel": 3589,
      "Ġlower": 3590,
      "ĊĠĠĠĠĠĠĠĠĠĠĠĠĠĠĠĠĠĠĠĠĠĠĠĠĠĠĠĠĠĠĠĠĠĠĠĠĠĠĠĠĠĠĠĠĠĠĠĠĠĠĠĠĠĠĠĠĠĠĠĠĠĠĠĠĠĠĠ": 3591,
      "Ġbound": 3592,
      "Ġrequested": 3593,
      "String": 3594,
      "={": 3595,
      "bbox": 3596,
      "Ġvideo": 3597,
      "Ġtrue": 3598,
      "tils": 3599,
      "Ġcalled": 3600,
      "Ġ16": 3601,
      "ĊĠĠĠĠĠĠĠĠĠĠĠĠĠĠĠĠĠĠĠĠĠĠĠĠĠĠĠĠĠĠĠĠĠĠĠĠĠĠĠĠĠĠĠĠĠĠĠĠĠĠĠĠĠĠĠĠĠĠĠĠĠ": 3602,
      "preds": 3603,
      "Ġenc": 3604,
      "bins": 3605,
      "Ġfinally": 3606,
      "Ġrepresentation": 3607,
      "suffix": 3608,
      "Update": 3609,
      ".,": 3610,
      "Block": 3611,
      "Given": 3612,
      "KE": 3613,
      "Tra": 3614,
      "eff": 3615,
      "holder": 3616,
      "èĤ": 3617,
      "Ġtri": 3618,
      "ansition": 3619,
      "show": 3620,
      "okies": 3621,
      "latform": 3622,
      "latents": 3623,
      "cloud": 3624,
      "Ġcontains": 3625,
      "operator": 3626,
      "Ġshared": 3627,
      ":-": 3628,
      "sess": 3629,
      "storage": 3630,
      "Ġabs": 3631,
      "lap": 3632,
      "Ġ'-": 3633,
      "Ġgot": 3634,
      "('--": 3635,
      "Ġkeyword": 3636,
      "Ġ32": 3637,
      "Ġiteration": 3638,
      ")}": 3639,
      "Field": 3640,
      "lm": 3641,
      "rdd": 3642,
      "ratio": 3643,
      "sue": 3644,
      "defaults": 3645,
      "Ġalways": 3646,
      "models": 3647,
      "ĊĠĠĠĠĠĠĠĠĠĠĠĠĠĠĠĠĠĠĠĠĠĠĠĠĠĠĠĠĠĠĠĠĠĠĠĠĠĠĠĠĠĠĠĠĠĠĠĠĠĠĠĠĠĠĠĠĠĠĠĠĠĠĠĠĠĠĠĠĠĠĠĠĠĠĠĠĠ": 3648,
      "Ġarea": 3649,
      "ĠInvalid": 3650,
      "Ġvalidation": 3651,
      "Ġapp": 3652,
      "plier": 3653,
      "ĠNotImplemented": 3654,
      "Ġclasses": 3655,
      "%(": 3656,
      "Multi": 3657,
      "QA": 3658,
      "jor": 3659,
      "ersion": 3660,
      "rozen": 3661,
      "loy": 3662,
      "lout": 3663,
      "Ġcoerce": 3664,
      "Ġext": 3665,
      "Ġdevice": 3666,
      "Ġdelete": 3667,
      "ĊĠĠĠĠĠĠĠĠĠĠĠĠĠĠĠĠĠĠĠĠĠĠĠĠĠĠĠĠĠĠĠĠĠĠĠĠĠĠĠĠĠĠĠĠĠĠĠĠĠĠĠĠĠĠĠĠĠĠĠĠĠĠĠĠĠĠĠĠĠĠĠĠĠĠĠĠĠĠ": 3668,
      "ĠFuture": 3669,
      "èĤ¡": 3670,
      "DF": 3671,
      "alpha": 3672,
      "Ġimplement": 3673,
      "unch": 3674,
      "Ġinv": 3675,
      "partial": 3676,
      "Ġconstruct": 3677,
      "indexes": 3678,
      "Ġpretrained": 3679,
      "cursor": 3680,
      "ĠWeb": 3681,
      "extras": 3682,
      "ĠConfig": 3683,
      "Ġchannels": 3684,
      "ordin": 3685,
      "ĠSparkContext": 3686,
      "::": 3687,
      "PAT": 3688,
      "how": 3689,
      "uda": 3690,
      "Ġflatten": 3691,
      "Ġfollow": 3692,
      "sim": 3693,
      "Ġexpect": 3694,
      "Ġgr": 3695,
      "Ġassets": 3696,
      "boost": 3697,
      "shuffle": 3698,
      "Ġalign": 3699,
      "ĠGet": 3700,
      "objects": 3701,
      "----------------": 3702,
      "Ġnetwork": 3703,
      "allelism": 3704,
      ")(": 3705,
      "cending": 3706,
      "maries": 3707,
      "separ": 3708,
      "Ġcat": 3709,
      "Ġspa": 3710,
      "raction": 3711,
      "Ġstyle": 3712,
      "Ġexclude": 3713,
      "Ġdecorator": 3714,
      "isto": 3715,
      "izes": 3716,
      "0000": 3717,
      "minute": 3718,
      "matmul": 3719,
      "Ġsubset": 3720,
      "commit": 3721,
      "Ġneeds": 3722,
      "Ġtensors": 3723,
      "Ġlatent": 3724,
      "Ġdisplay": 3725,
      ")])": 3726,
      "crop": 3727,
      "ef": 3728,
      "getter": 3729,
      "()]": 3730,
      "Ġgamma": 3731,
      "Ġcond": 3732,
      "service": 3733,
      "tach": 3734,
      "Ġkind": 3735,
      "Ġtrainer": 3736,
      "Ġfunctions": 3737,
      "unicode": 3738,
      "Ġunicode": 3739,
      "scriptor": 3740,
      "children": 3741,
      "observations": 3742,
      "password": 3743,
      "Mixin": 3744,
      "tas": 3745,
      "åĲ": 3746,
      "reindex": 3747,
      "Ġiden": 3748,
      "Ġfeed": 3749,
      "()):": 3750,
      "shift": 3751,
      "Exec": 3752,
      "single": 3753,
      "Ġmatrix": 3754,
      "Ġskipna": 3755,
      "serializer": 3756,
      "Ġstdout": 3757,
      "EX": 3758,
      "af": 3759,
      "ection": 3760,
      "fre": 3761,
      "ful": 3762,
      "ground": 3763,
      "åħ": 3764,
      "æį": 3765,
      "include": 3766,
      "member": 3767,
      "arly": 3768,
      "enter": 3769,
      "Ġcookie": 3770,
      "Ġseries": 3771,
      "mooth": 3772,
      "ĠWrap": 3773,
      "cheduler": 3774,
      "refs": 3775,
      "Ġsteps": 3776,
      "Make": 3777,
      "emp": 3778,
      "ycle": 3779,
      "Ġquestion": 3780,
      "Ġremote": 3781,
      "Ġplace": 3782,
      "adam": 3783,
      "cesses": 3784,
      "ĠNo": 3785,
      "Ġpost": 3786,
      "pipe": 3787,
      "ixed": 3788,
      "Ġcodes": 3789,
      "available": 3790,
      "control": 3791,
      "Ġverify": 3792,
      "Ġterm": 3793,
      "Ġ256": 3794,
      "Mode": 3795,
      "]],": 3796,
      "high": 3797,
      "éĩ": 3798,
      "Ġcustom": 3799,
      "Ġequal": 3800,
      "']['": 3801,
      "Ġsetup": 3802,
      "Construct": 3803,
      "Ġneeded": 3804,
      "Ġsocket": 3805,
      "Ġmethods": 3806,
      "Ġcast": 3807,
      "Ġappend": 3808,
      "Ġextras": 3809,
      "Ġconfiguration": 3810,
      "terminal": 3811,
      "dump": 3812,
      "Func": 3813,
      "LU": 3814,
      "ified": 3815,
      "tin": 3816,
      "udent": 3817,
      "deep": 3818,
      "Ġds": 3819,
      "chain": 3820,
      "contain": 3821,
      "Ġdesc": 3822,
      "ĠImport": 3823,
      "Ġshard": 3824,
      "tivations": 3825,
      "Proto": 3826,
      "adjustments": 3827,
      "ĠColumn": 3828,
      "coerce": 3829,
      "Ġinner": 3830,
      "Ġps": 3831,
      "Ġside": 3832,
      "Ġbbox": 3833,
      "Ġ\",": 3834,
      "Ġreshape": 3835,
      "plat": 3836,
      "episode": 3837,
      "Ġprogress": 3838,
      "ĠCreate": 3839,
      "dirname": 3840,
      "ĠModalityType": 3841,
      "Ġ{}'.": 3842,
      "ayer": 3843,
      "Ġ1000": 3844,
      "Serial": 3845,
      "Ġrequires": 3846,
      "Ġplt": 3847,
      "IT": 3848,
      "ZE": 3849,
      "bn": 3850,
      "sw": 3851,
      "Ġview": 3852,
      "arrow": 3853,
      "Ġima": 3854,
      "ani": 3855,
      "units": 3856,
      "Ġsimp": 3857,
      "Ġ[(": 3858,
      "datasource": 3859,
      "methods": 3860,
      "avg": 3861,
      "Ġgradient": 3862,
      "ORD": 3863,
      "mark": 3864,
      "Ġstats": 3865,
      "fail": 3866,
      "Ġdot": 3867,
      "Ġexpr": 3868,
      "Ġassign": 3869,
      "Ġdecay": 3870,
      "tention": 3871,
      "Ġcoll": 3872,
      "Ġshuffle": 3873,
      "compiler": 3874,
      "before": 3875,
      "Service": 3876,
      "wn": 3877,
      "zone": 3878,
      "ĠError": 3879,
      "Ġqueue": 3880,
      "Ġsig": 3881,
      "Ġschedule": 3882,
      "verts": 3883,
      "Ġconnection": 3884,
      "Ġanch": 3885,
      "ĠPandas": 3886,
      "Ġshift": 3887,
      "Ġnecessary": 3888,
      "ĠOS": 3889,
      "prediction": 3890,
      "finished": 3891,
      "blk": 3892,
      "Ġwheel": 3893,
      "ABASE": 3894,
      "Compute": 3895,
      "face": 3896,
      "OF": 3897,
      "est": 3898,
      "flags": 3899,
      "åĩ": 3900,
      "Ġ64": 3901,
      "Ġcb": 3902,
      "export": 3903,
      "ithub": 3904,
      "abled": 3905,
      "Ġseed": 3906,
      "short": 3907,
      "Ġalso": 3908,
      "ĠNa": 3909,
      "Ġcontaining": 3910,
      "Generate": 3911,
      "requires": 3912,
      "ĠNotImplementedError": 3913,
      "HE": 3914,
      "ache": 3915,
      "ick": 3916,
      "mal": 3917,
      "sz": 3918,
      "spa": 3919,
      "ç»": 3920,
      "Ġfast": 3921,
      "ĊĠĠĠĠĠĠĠĠĠĠĠĠĠĠĠĠĠĠĠĠĠĠĠĠĠĠĠĠĠĠĠĠĠĠĠĠĠĠĠĠĠĠĠĠĠĠĠĠĠĠĠĠĠĠĠĠĠĠĠĠ": 3922,
      "Ġengine": 3923,
      "groupby": 3924,
      "Ġregister": 3925,
      "Ġmarker": 3926,
      "Ġsentence": 3927,
      "Ġencoded": 3928,
      "(__": 3929,
      "-%": 3930,
      "DO": 3931,
      "PRO": 3932,
      "QU": 3933,
      "Ġfactor": 3934,
      "uring": 3935,
      "Ġindent": 3936,
      "Ġcategor": 3937,
      "Ġstore": 3938,
      "Ġresp": 3939,
      "Ġthrough": 3940,
      "pretrained": 3941,
      "shard": 3942,
      "Ġoptional": 3943,
      "Ġtimedelta": 3944,
      "Ġdtypes": 3945,
      "ĠNO": 3946,
      "Conv": 3947,
      "Ġshort": 3948,
      "Ġcreated": 3949,
      "Ġsplits": 3950,
      "MAX": 3951,
      "Ġsignal": 3952,
      "Ġedge": 3953,
      "Ġsql": 3954,
      ":%": 3955,
      "her": 3956,
      "hook": 3957,
      "tify": 3958,
      "Ġreason": 3959,
      "Ġbroadcast": 3960,
      "settings": 3961,
      "conf": 3962,
      "times": 3963,
      "epsilon": 3964,
      "collect": 3965,
      "ators": 3966,
      "Ġoptim": 3967,
      "Ġlearn": 3968,
      "ERR": 3969,
      "30": 3970,
      "Sto": 3971,
      "basic": 3972,
      "fd": 3973,
      "åį": 3974,
      "arange": 3975,
      "ense": 3976,
      "ants": 3977,
      "les": 3978,
      "Ġrecur": 3979,
      "Ġinvalid": 3980,
      "Ġinspect": 3981,
      "isinstance": 3982,
      "contrib": 3983,
      "ĠTable": 3984,
      "tries": 3985,
      "Ġsystem": 3986,
      "docs": 3987,
      "Ġoverride": 3988,
      "padded": 3989,
      "Command": 3990,
      "Ġ>>>": 3991,
      "istogram": 3992,
      "20": 3993,
      "Len": 3994,
      "br": 3995,
      "far": 3996,
      "Ġlin": 3997,
      "resize": 3998,
      "regex": 3999,
      "dec": 4000,
      "Ġaverage": 4001,
      "loader": 4002,
      "chat": 4003,
      "ish": 4004,
      "Ġ'/": 4005,
      "Reader": 4006,
      "Ġsection": 4007,
      "Ġjava": 4008,
      "Ġpoint": 4009,
      "Ġgroups": 4010,
      "resolve": 4011,
      "For": 4012,
      "Group": 4013,
      "``.": 4014,
      "mi": 4015,
      "mgr": 4016,
      "inf": 4017,
      "Ġboo": 4018,
      "ditions": 4019,
      "experts": 4020,
      "Ġ[],": 4021,
      "ilar": 4022,
      "Ġcondition": 4023,
      "Ġperm": 4024,
      "ĠSee": 4025,
      "Ġbinary": 4026,
      "SIZE": 4027,
      ").__": 4028,
      "He": 4029,
      "Num": 4030,
      "Wrap": 4031,
      "gre": 4032,
      "github": 4033,
      "rnn": 4034,
      "æĪ": 4035,
      "Ġ7": 4036,
      "ons": 4037,
      "parsed": 4038,
      "Ġstock": 4039,
      "proj": 4040,
      "\"]:": 4041,
      "Ġsettings": 4042,
      "Ġuntil": 4043,
      "system": 4044,
      "Ġrequests": 4045,
      "ĠGH": 4046,
      "ATION": 4047,
      "served": 4048,
      "tuples": 4049,
      "Ġallowed": 4050,
      "Ġfrequence": 4051,
      "MODE": 4052,
      "iki": 4053,
      "Label": 4054,
      "eve": 4055,
      "nly": 4056,
      "cost": 4057,
      "tools": 4058,
      "Ġ\"/": 4059,
      "Ġgate": 4060,
      "ector": 4061,
      "ĠSo": 4062,
      "Ġdefined": 4063,
      "formed": 4064,
      "shared": 4065,
      "environment": 4066,
      "volume": 4067,
      "pairs": 4068,
      "platform": 4069,
      "URL": 4070,
      "gz": 4071,
      "medi": 4072,
      "Ġfil": 4073,
      "escape": 4074,
      "Ġexpi": 4075,
      "(\"%": 4076,
      "Reg": 4077,
      "Reference": 4078,
      "ĠStr": 4079,
      "uble": 4080,
      "Collection": 4081,
      "Tuple": 4082,
      "pd": 4083,
      "wers": 4084,
      "Ġren": 4085,
      "uner": 4086,
      "unks": 4087,
      "cimal": 4088,
      "\"](": 4089,
      "ĠNote": 4090,
      "ĊĠĠĠĠĠĠĠĠĠĠĠĠĠĠĠĠĠĠĠĠĠĠĠĠĠĠĠĠĠĠĠĠĠĠĠĠĠĠĠĠĠĠĠĠĠĠĠĠĠĠĠĠĠĠĠĠĠĠĠĠĠĠĠĠĠĠĠĠĠĠĠĠĠĠĠĠĠĠĠ": 4091,
      "ighb": 4092,
      "Ġotherwise": 4093,
      "Start": 4094,
      "{}'.": 4095,
      "ĠRequest": 4096,
      "Ġvals": 4097,
      "LOG": 4098,
      "æľŁ": 4099,
      "Ġevaluate": 4100,
      "lassi": 4101,
      "è¯": 4102,
      "Ġregex": 4103,
      "Ġshell": 4104,
      "Ġwould": 4105,
      "Ġmodality": 4106,
      "term": 4107,
      "Ġ'\\": 4108,
      "Ġrhs": 4109,
      "Ġdelta": 4110,
      "mmar": 4111,
      "Ġadded": 4112,
      "Ġagain": 4113,
      "æį®": 4114,
      "cing": 4115,
      "elements": 4116,
      "mult": 4117,
      "atrix": 4118,
      "tic": 4119,
      "Ġway": 4120,
      "Ġproperty": 4121,
      "ĠPath": 4122,
      "minator": 4123,
      "Ġalong": 4124,
      "Cont": 4125,
      "modules": 4126,
      "commands": 4127,
      "Ġmatches": 4128,
      "cumul": 4129,
      "Ġimplementation": 4130,
      "ared": 4131,
      "gates": 4132,
      "ools": 4133,
      "Ġembed": 4134,
      "Ġwrit": 4135,
      "mentum": 4136,
      "Ġpartial": 4137,
      "ĠPre": 4138,
      "byte": 4139,
      "sentence": 4140,
      "clear": 4141,
      "Struct": 4142,
      "æĹ¶": 4143,
      ":])": 4144,
      "DFrame": 4145,
      "IG": 4146,
      "IL": 4147,
      "dm": 4148,
      "hen": 4149,
      "insi": 4150,
      "ont": 4151,
      "ctools": 4152,
      "Ġwait": 4153,
      "ĠCategorical": 4154,
      "force": 4155,
      "Ġadj": 4156,
      "[:]": 4157,
      "Ġaccess": 4158,
      "Ġ512": 4159,
      "ĠJSON": 4160,
      "DATABASE": 4161,
      "PATH": 4162,
      "ĠImportError": 4163,
      "Ġcategories": 4164,
      "50": 4165,
      "BU": 4166,
      "ES": 4167,
      "From": 4168,
      "cash": 4169,
      "many": 4170,
      "wheel": 4171,
      "Ġrequirement": 4172,
      "Ġes": 4173,
      "Ġsw": 4174,
      "six": 4175,
      "exe": 4176,
      "exit": 4177,
      "argmax": 4178,
      "Ġ[])": 4179,
      "prop": 4180,
      "Ġpartitions": 4181,
      "Parser": 4182,
      "Ġperform": 4183,
      "AS": 4184,
      "HTTP": 4185,
      "Size": 4186,
      "TF": 4187,
      "Version": 4188,
      "td": 4189,
      "åĽ": 4190,
      "onent": 4191,
      "repeat": 4192,
      "sist": 4193,
      "Ġutils": 4194,
      "bounds": 4195,
      "Ġwords": 4196,
      "epochs": 4197,
      "Ġfinished": 4198,
      "ĊĠĠĠĠĠĠĠĠĠĠĠĠĠĠĠĠĠĠĠĠĠĠĠĠĠĠĠĠĠĠĠĠĠĠĠĠĠĠĠĠĠĠĠĠĠĠĠĠĠĠĠĠĠĠĠĠĠĠĠĠĠĠĠĠĠĠĠĠĠĠĠĠĠĠĠĠĠĠĠĠĠĠĠĠĠĠĠĠĠĠĠĠĠĠĠĠĠĠĠĠĠĠĠĠ": 4199,
      "Ġabout": 4200,
      "missions": 4201,
      "Perform": 4202,
      "/%": 4203,
      "Al": 4204,
      "Job": 4205,
      "Variable": 4206,
      "We": 4207,
      "auto": 4208,
      "second": 4209,
      "orter": 4210,
      "tick": 4211,
      "Ġnlp": 4212,
      "lear": 4213,
      "Ġplatform": 4214,
      "Ġcrop": 4215,
      "amily": 4216,
      "ssh": 4217,
      "percentile": 4218,
      "sertion": 4219,
      "opy": 4220,
      "Ġrate": 4221,
      "Ġrank": 4222,
      "Ġden": 4223,
      "ĠCh": 4224,
      "Ġbyte": 4225,
      "Ġmasked": 4226,
      "Ġcaffe": 4227,
      "Ġgenerated": 4228,
      "Ġdistribution": 4229,
      "grpc": 4230,
      "domain": 4231,
      "CTION": 4232,
      "dispatch": 4233,
      "(['": 4234,
      "AX": 4235,
      "Na": 4236,
      "bet": 4237,
      "dttm": 4238,
      "Ġanswer": 4239,
      "rec": 4240,
      "Ġfmt": 4241,
      "Ġcsv": 4242,
      "Ġstored": 4243,
      "versed": 4244,
      "('\\": 4245,
      "serve": 4246,
      "viden": 4247,
      "prev": 4248,
      "Ġsep": 4249,
      "ĠPy": 4250,
      "Ġnoqa": 4251,
      "Keys": 4252,
      "executor": 4253,
      "Ġtarinfo": 4254,
      "GBM": 4255,
      "sigmoid": 4256,
      "PRE": 4257,
      "SP": 4258,
      "cfg": 4259,
      "nist": 4260,
      "xs": 4261,
      "rag": 4262,
      "esc": 4263,
      "conn": 4264,
      "ĠIter": 4265,
      "Ġcollection": 4266,
      "__)": 4267,
      "Ġnested": 4268,
      "ĊĠĠĠĠĠĠĠĠĠĠĠĠĠĠĠĠĠĠĠĠĠĠĠĠĠĠĠĠĠĠĠĠĠĠĠĠĠĠĠĠĠĠĠĠĠĠĠĠĠĠĠĠĠĠĠĠĠĠĠĠĠĠĠĠĠĠĠĠ": 4269,
      "endency": 4270,
      "Ġ1024": 4271,
      "Ġtermin": 4272,
      "Ġboolean": 4273,
      "19": 4274,
      "AM": 4275,
      "Graph": 4276,
      "RDD": 4277,
      "bits": 4278,
      "ered": 4279,
      "modality": 4280,
      "pct": 4281,
      "rb": 4282,
      "sleep": 4283,
      "}'.": 4284,
      "restore": 4285,
      "ticle": 4286,
      "Ġndim": 4287,
      "cei": 4288,
      "utures": 4289,
      "this": 4290,
      "(\"\\": 4291,
      "ĠTrial": 4292,
      "Ġsend": 4293,
      "Ġyear": 4294,
      "transaction": 4295,
      "cording": 4296,
      "CHART": 4297,
      "Ġprotobuf": 4298,
      "periods": 4299,
      "Date": 4300,
      "VI": 4301,
      "gather": 4302,
      "tml": 4303,
      "æĸ": 4304,
      "ency": 4305,
      "racket": 4306,
      "Ġdil": 4307,
      "Ġoc": 4308,
      "dig": 4309,
      "fici": 4310,
      "threshold": 4311,
      "Ġ'__": 4312,
      "Ġhistory": 4313,
      "Ġstruct": 4314,
      "Ġdefaults": 4315,
      "ĠIO": 4316,
      "counter": 4317,
      "Generator": 4318,
      "Ġstacklevel": 4319,
      "Matrix": 4320,
      "folder": 4321,
      "fmt": 4322,
      "çĶ": 4323,
      "getransformer": 4324,
      "tower": 4325,
      "Ġ\"\\": 4326,
      "setup": 4327,
      "assert": 4328,
      "Ġgt": 4329,
      "Ġwithin": 4330,
      "acity": 4331,
      "compatible": 4332,
      "Parameters": 4333,
      "Ġmatching": 4334,
      "Ġinterpo": 4335,
      "Response": 4336,
      "Ġvars": 4337,
      "POINTER": 4338,
      "Ġresolve": 4339,
      "Ġimagetransformer": 4340,
      "Class": 4341,
      "FLAGS": 4342,
      "]=": 4343,
      "ae": 4344,
      "kg": 4345,
      "reverse": 4346,
      "ural": 4347,
      "Ġpop": 4348,
      "Ġduplic": 4349,
      "named": 4350,
      "ĠTrain": 4351,
      "ĠTuple": 4352,
      "Ġrand": 4353,
      "Ġdev": 4354,
      "Ġdeprecated": 4355,
      "ĠSQL": 4356,
      "ĠMX": 4357,
      "ĠBu": 4358,
      "Ġfailed": 4359,
      "Ġcorresponding": 4360,
      "BO": 4361,
      "CS": 4362,
      "bility": 4363,
      "dater": 4364,
      "ole": 4365,
      "æĮ": 4366,
      "æĿ": 4367,
      "atched": 4368,
      "lookup": 4369,
      "Ġmis": 4370,
      "Ġ'{}": 4371,
      "olution": 4372,
      "Input": 4373,
      "Initial": 4374,
      "ĠBlock": 4375,
      "ĠFLAGS": 4376,
      "Ġbuilder": 4377,
      "wrapper": 4378,
      "Encoder": 4379,
      "æķ°æį®": 4380,
      "evaluate": 4381,
      "hi": 4382,
      "lstm": 4383,
      "choice": 4384,
      "uman": 4385,
      "functions": 4386,
      "havi": 4387,
      "Ġtok": 4388,
      "ĠNDFrame": 4389,
      "Ġlengths": 4390,
      "initialized": 4391,
      "rtual": 4392,
      "Method": 4393,
      "center": 4394,
      ")],": 4395,
      "Python": 4396,
      "cross": 4397,
      "custom": 4398,
      "ema": 4399,
      "events": 4400,
      "nb": 4401,
      "sampling": 4402,
      "å¤": 4403,
      "segment": 4404,
      "Ġcategorical": 4405,
      "Ġsl": 4406,
      "Ġspec": 4407,
      "sian": 4408,
      "Ġhtml": 4409,
      "Record": 4410,
      "instances": 4411,
      "Ġlook": 4412,
      "iteritems": 4413,
      "Ġtranspose": 4414,
      "Ġworks": 4415,
      "Ġgradients": 4416,
      "trials": 4417,
      "Ġnamespace": 4418,
      "Ġframes": 4419,
      "Ġlatents": 4420,
      "plied": 4421,
      "flush": 4422,
      "mit": 4423,
      "indent": 4424,
      "Ġtit": 4425,
      "alance": 4426,
      "ante": 4427,
      "Ġredirect": 4428,
      "uted": 4429,
      "Ġscheme": 4430,
      "exclude": 4431,
      "enda": 4432,
      "Ġmember": 4433,
      "minimum": 4434,
      "activation": 4435,
      "Ġtransaction": 4436,
      "qualified": 4437,
      "Ġdecoded": 4438,
      "serialization": 4439,
      "packages": 4440,
      "Ġremoved": 4441,
      "ĠOSError": 4442,
      "ERROR": 4443,
      "Element": 4444,
      "PER": 4445,
      "bind": 4446,
      "zed": 4447,
      "Ġarch": 4448,
      "remaining": 4449,
      "ites": 4450,
      "simp": 4451,
      "Ġtoo": 4452,
      "Ġstderr": 4453,
      "Ġthose": 4454,
      "Ġvis": 4455,
      "ffn": 4456,
      "acc": 4457,
      "ĠBatch": 4458,
      "coro": 4459,
      "Ġcompression": 4460,
      "Ġoverwrite": 4461,
      "shap": 4462,
      "ĠUnion": 4463,
      "Any": 4464,
      "Ent": 4465,
      "NUM": 4466,
      "TML": 4467,
      "_)": 4468,
      "fl": 4469,
      "master": 4470,
      "expert": 4471,
      "olds": 4472,
      "('.": 4473,
      "Ġordered": 4474,
      "ĠSymbol": 4475,
      "imize": 4476,
      "compile": 4477,
      "icro": 4478,
      "multiplier": 4479,
      "Ġupper": 4480,
      "Optional": 4481,
      "Ġvia": 4482,
      "ELD": 4483,
      "Ġnni": 4484,
      "Ġmonth": 4485,
      "æĺ¯": 4486,
      "Ġperiods": 4487,
      "Code": 4488,
      "Di": 4489,
      "cate": 4490,
      "qdm": 4491,
      "sources": 4492,
      "requirement": 4493,
      "eno": 4494,
      "Ġfully": 4495,
      "utable": 4496,
      "itable": 4497,
      "Ġbar": 4498,
      "()),": 4499,
      "Ġ\"{": 4500,
      "Ġprecision": 4501,
      "Ġshapes": 4502,
      "ATE": 4503,
      "network": 4504,
      "Ġspecial": 4505,
      "Ġlevels": 4506,
      "Def": 4507,
      "201": 4508,
      "Dis": 4509,
      "Fin": 4510,
      "PY": 4511,
      "iase": 4512,
      "rank": 4513,
      "uction": 4514,
      "report": 4515,
      "ories": 4516,
      "loaded": 4517,
      "Ġstrip": 4518,
      "Ġproc": 4519,
      "Ġpreprocess": 4520,
      "Ġprepare": 4521,
      "Ġnegative": 4522,
      "nested": 4523,
      "Ġaccount": 4524,
      "Args": 4525,
      "Ġformatter": 4526,
      "åıĸ": 4527,
      "Bytes": 4528,
      "Ġbins": 4529,
      "æĹ¥": 4530,
      "äº¤": 4531,
      "Ġcharacter": 4532,
      "Ġtitle": 4533,
      "05": 4534,
      "An": 4535,
      "SAME": 4536,
      "cv": 4537,
      "ports": 4538,
      "records": 4539,
      "ings": 4540,
      "Ġblob": 4541,
      "ssl": 4542,
      "argin": 4543,
      "ĠnumPartitions": 4544,
      "payload": 4545,
      "cii": 4546,
      "Ġlstm": 4547,
      "agg": 4548,
      "rences": 4549,
      "Ġteacher": 4550,
      "crement": 4551,
      "Ġinstances": 4552,
      "returns": 4553,
      "termine": 4554,
      "Ġmarket": 4555,
      "Ġevaluation": 4556,
      "'\\": 4557,
      "03": 4558,
      "ET": 4559,
      "FO": 4560,
      "Factor": 4561,
      "ware": 4562,
      "alias": 4563,
      "Ġreturned": 4564,
      "Ġwarn": 4565,
      "adj": 4566,
      "trinsi": 4567,
      "apter": 4568,
      "prepostprocess": 4569,
      "Ġwere": 4570,
      "Ġlock": 4571,
      "ĠDist": 4572,
      "maximum": 4573,
      "Ġtimes": 4574,
      "vely": 4575,
      "subset": 4576,
      "timing": 4577,
      "ryp": 4578,
      "ĊĠĠĠĠĠĠĠĠĠĠĠĠĠĠĠĠĠĠĠĠĠĠĠĠĠĠĠĠĠĠĠĠĠĠĠĠĠĠĠĠĠĠĠĠĠĠĠĠĠĠĠĠĠĠĠĠĠĠĠĠĠĠĠĠĠĠĠĠĠĠĠĠĠĠĠĠĠĠĠĠĠĠĠĠĠĠĠĠĠĠĠĠĠĠĠĠ": 4579,
      "Inter": 4580,
      "ynam": 4581,
      "Ġrequirements": 4582,
      "èĤ¡ç": 4583,
      ":],": 4584,
      "AGE": 4585,
      "Eval": 4586,
      "spe": 4587,
      "slices": 4588,
      "Ġio": 4589,
      "hex": 4590,
      "Ġcfg": 4591,
      "Ġclick": 4592,
      "Ġeps": 4593,
      "distance": 4594,
      "verbose": 4595,
      "mbers": 4596,
      "Ġutil": 4597,
      "Ġpreds": 4598,
      "Ġanother": 4599,
      "dence": 4600,
      "moving": 4601,
      "Ġwhat": 4602,
      "ĠModel": 4603,
      "agger": 4604,
      "INT": 4605,
      "Ġdimensions": 4606,
      "Ġkvstore": 4607,
      "13": 4608,
      "Desc": 4609,
      "Gets": 4610,
      "NI": 4611,
      "sity": 4612,
      "¥¨": 4613,
      "attribute": 4614,
      "erature": 4615,
      "anel": 4616,
      "Ġfun": 4617,
      "Ġplot": 4618,
      "role": 4619,
      "direction": 4620,
      "adv": 4621,
      "previous": 4622,
      "Ġdiff": 4623,
      "Ġops": 4624,
      "ĠMake": 4625,
      "correct": 4626,
      "ĠQuery": 4627,
      "dfs": 4628,
      "Token": 4629,
      "Ġselected": 4630,
      "simple": 4631,
      "èĤ¡ç¥¨": 4632,
      "Object": 4633,
      "dle": 4634,
      "nl": 4635,
      "zy": 4636,
      "Ġuri": 4637,
      "Ġcenter": 4638,
      "Ġcycle": 4639,
      "Ġssl": 4640,
      "iddle": 4641,
      "Ġexport": 4642,
      "Ġconnect": 4643,
      "('/": 4644,
      "Ġrl": 4645,
      "Ġprofile": 4646,
      "ĠInt": 4647,
      "Instance": 4648,
      "ĠMe": 4649,
      "gradients": 4650,
      "neg": 4651,
      "signature": 4652,
      "sentences": 4653,
      "concatenate": 4654,
      "Ġbackward": 4655,
      "ä¸Ģ": 4656,
      "genet": 4657,
      "FIELD": 4658,
      "observation": 4659,
      "Ġtyp": 4660,
      "TIME": 4661,
      "Function": 4662,
      "off": 4663,
      "rup": 4664,
      "}.": 4665,
      "æł": 4666,
      "ĊĠĠĠĠĠĠĠĠĠĠ": 4667,
      "descriptor": 4668,
      "align": 4669,
      "Ġresize": 4670,
      "help": 4671,
      "Ġearly": 4672,
      "raint": 4673,
      "Ġisna": 4674,
      "Ġman": 4675,
      "tolist": 4676,
      "mpt": 4677,
      "etri": 4678,
      "tered": 4679,
      "Ġproxy": 4680,
      "Ġpresent": 4681,
      "__.": 4682,
      "Ġlanguage": 4683,
      "week": 4684,
      "Ġcandidate": 4685,
      "Params": 4686,
      "periments": 4687,
      "Ġcomplete": 4688,
      "aky": 4689,
      "Ġconverted": 4690,
      "Ġspecific": 4691,
      "Ġexplicit": 4692,
      "Ġdispatch": 4693,
      "Ġsmall": 4694,
      "mk": 4695,
      "tc": 4696,
      "çº": 4697,
      "è´": 4698,
      "sec": 4699,
      "redirect": 4700,
      "getattr": 4701,
      "trunc": 4702,
      "ascii": 4703,
      "posed": 4704,
      "istic": 4705,
      "Ġleast": 4706,
      "Ġadditional": 4707,
      "Converts": 4708,
      "accuracy": 4709,
      "Ġacross": 4710,
      "aved": 4711,
      "Arg": 4712,
      "Ġgroupby": 4713,
      "multiple": 4714,
      "messages": 4715,
      "Ġmessages": 4716,
      "ä¸ª": 4717,
      "override": 4718,
      "Ġviz": 4719,
      "ServiceClient": 4720,
      "''": 4721,
      "60": 4722,
      "LEN": 4723,
      "iloc": 4724,
      "tize": 4725,
      "Ġelem": 4726,
      "Ġmight": 4727,
      "Ġdescription": 4728,
      "Ġsequences": 4729,
      "Ġlong": 4730,
      "ĠBy": 4731,
      "Ġcached": 4732,
      "ĠUse": 4733,
      "Ġnumbers": 4734,
      "CHE": 4735,
      "Ġsuch": 4736,
      "Activation": 4737,
      "KEY": 4738,
      "Vector": 4739,
      "_.": 4740,
      "gacy": 4741,
      "hour": 4742,
      "hooks": 4743,
      "jdf": 4744,
      "ä¿": 4745,
      "sequences": 4746,
      "mem": 4747,
      "titem": 4748,
      "Ġflags": 4749,
      "Ġindividual": 4750,
      "utc": 4751,
      "Ġobs": 4752,
      "riminator": 4753,
      "Ġhook": 4754,
      "condition": 4755,
      "cale": 4756,
      "precision": 4757,
      "Ġenti": 4758,
      "ĠDE": 4759,
      "book": 4760,
      "ĠAd": 4761,
      "Ġlists": 4762,
      "versions": 4763,
      "Ġaccording": 4764,
      "subclass": 4765,
      "Ġnoise": 4766,
      "ORM": 4767,
      "Ġaggreg": 4768,
      "Ġmark": 4769,
      "Ġscript": 4770,
      "Ġprior": 4771,
      "ĠDatetimeIndex": 4772,
      "inition": 4773,
      "emplate": 4774,
      "sertionError": 4775,
      "\"\\": 4776,
      "'}": 4777,
      "Copy": 4778,
      "Range": 4779,
      "cuda": 4780,
      "xim": 4781,
      "ym": 4782,
      "Ġnull": 4783,
      "une": 4784,
      "Ġbasic": 4785,
      "Ġconf": 4786,
      "rayons": 4787,
      "should": 4788,
      "Ġmaximum": 4789,
      "Ġtranslation": 4790,
      "Ġ})": 4791,
      "monitor": 4792,
      "oices": 4793,
      "allowed": 4794,
      "Ġembeddings": 4795,
      "Ġ255": 4796,
      "Apply": 4797,
      "Normal": 4798,
      "requirements": 4799,
      "ordinates": 4800,
      "Layer": 4801,
      "VE": 4802,
      "gpus": 4803,
      "oke": 4804,
      "ä½": 4805,
      "è®": 4806,
      "ĊĠĠĠĠĊĠĠĠ": 4807,
      "Ġ],": 4808,
      "del": 4809,
      "men": 4810,
      "andard": 4811,
      "paris": 4812,
      "issue": 4813,
      "putes": 4814,
      "ĠTrans": 4815,
      "Ġdebug": 4816,
      "ĠIt": 4817,
      "Ġtrainable": 4818,
      "ront": 4819,
      "prior": 4820,
      "Ġclosed": 4821,
      "helpers": 4822,
      "Level": 4823,
      "Ġassume": 4824,
      "02": 4825,
      "14": 4826,
      "Dist": 4827,
      "Driver": 4828,
      "If": 4829,
      "stage": 4830,
      "Ġts": 4831,
      "cos": 4832,
      "Ġfit": 4833,
      "ract": 4834,
      "isfile": 4835,
      "Ġmany": 4836,
      "Ġgpu": 4837,
      "Ġ*,": 4838,
      "calendar": 4839,
      "Ġonce": 4840,
      "ĠPo": 4841,
      "jobs": 4842,
      "Ġcursor": 4843,
      "idxs": 4844,
      "Ġactive": 4845,
      "vironment": 4846,
      "{}\".": 4847,
      "lusters": 4848,
      "callbacks": 4849,
      "Ġvocabulary": 4850,
      "share": 4851,
      "Ġprice": 4852,
      "Ġcounter": 4853,
      "ceived": 4854,
      "ĠMXNet": 4855,
      "OUT": 4856,
      "Sub": 4857,
      "Sets": 4858,
      "[_": 4859,
      "gh": 4860,
      "gger": 4861,
      "smooth": 4862,
      "å¼": 4863,
      "Ġbig": 4864,
      "Ġwell": 4865,
      "parallelism": 4866,
      "provi": 4867,
      "Ġrhp": 4868,
      "Ġproj": 4869,
      "Const": 4870,
      "oose": 4871,
      "handles": 4872,
      "normalized": 4873,
      "Column": 4874,
      "hashes": 4875,
      "Timestamp": 4876,
      "ä»ĵ": 4877,
      "randint": 4878,
      "visual": 4879,
      "Ġpairs": 4880,
      "Ġcharacters": 4881,
      "echo": 4882,
      "duplic": 4883,
      "gan": 4884,
      "tot": 4885,
      "æī": 4886,
      "éĹ": 4887,
      "inst": 4888,
      "statistics": 4889,
      "arded": 4890,
      "cookies": 4891,
      "Ġabo": 4892,
      "Ġdl": 4893,
      "Ġduring": 4894,
      "ummary": 4895,
      "Ġtower": 4896,
      "Ġexe": 4897,
      "Ġtfds": 4898,
      "quote": 4899,
      "Ġascending": 4900,
      "Requirement": 4901,
      "Ġexceptions": 4902,
      "agents": 4903,
      "Ġgrads": 4904,
      "Ġresolved": 4905,
      "ĠAssertionError": 4906,
      "DA": 4907,
      "}'": 4908,
      "Ġlayout": 4909,
      "alk": 4910,
      "unding": 4911,
      "lict": 4912,
      "Ġnamed": 4913,
      "Ġwriter": 4914,
      "fidence": 4915,
      "setdefault": 4916,
      "Ġho": 4917,
      "perf": 4918,
      "perm": 4919,
      "Ġseconds": 4920,
      "ĠCal": 4921,
      "ĠIP": 4922,
      "Ġfilepath": 4923,
      "ĠFi": 4924,
      "ĠRE": 4925,
      "ferences": 4926,
      "Ġaddress": 4927,
      "utoff": 4928,
      "æľī": 4929,
      "GET": 4930,
      "Ġdestination": 4931,
      "supported": 4932,
      "Ġannotation": 4933,
      "Store": 4934,
      "Length": 4935,
      "Out": 4936,
      "Random": 4937,
      "Write": 4938,
      "[(": 4939,
      "aus": 4940,
      "emb": 4941,
      "eos": 4942,
      "ireq": 4943,
      "vs": 4944,
      "variance": 4945,
      "sen": 4946,
      "ench": 4947,
      "cogn": 4948,
      "Ġfetch": 4949,
      "Ġrelu": 4950,
      "Ġeven": 4951,
      "Ġsampling": 4952,
      "light": 4953,
      "chine": 4954,
      "isdir": 4955,
      "Ġmath": 4956,
      "Ġbeing": 4957,
      "links": 4958,
      "oci": 4959,
      "Ġdirect": 4960,
      "caffe": 4961,
      "Ġlang": 4962,
      "Connect": 4963,
      "tempt": 4964,
      "Ġpassword": 4965,
      "Ġupdated": 4966,
      "interval": 4967,
      "priate": 4968,
      "encoded": 4969,
      "Ġnormalized": 4970,
      "Ġwrapped": 4971,
      "Ġappropriate": 4972,
      "Ġtraceback": 4973,
      "ynamic": 4974,
      "Ġabove": 4975,
      "39": 4976,
      "Build": 4977,
      "GFile": 4978,
      "Sh": 4979,
      "fp": 4980,
      "free": 4981,
      "qtr": 4982,
      "çł": 4983,
      "Ġbit": 4984,
      "atibility": 4985,
      "Ġ[(\"": 4986,
      "ĠText": 4987,
      "Ġvs": 4988,
      "indptr": 4989,
      "portfolio": 4990,
      "Ġround": 4991,
      "Param": 4992,
      "Ġiterable": 4993,
      "Ġtopk": 4994,
      "Union": 4995,
      "Unknown": 4996,
      "https": 4997,
      "volution": 4998,
      "Ġsignature": 4999,
      "Ġinferred": 5000,
      "Ġcounts": 5001,
      "Formatter": 5002,
      "Ġblk": 5003,
      "ĠPeriod": 5004,
      "HEAD": 5005,
      "parison": 5006,
      ",),": 5007,
      "ACK": 5008,
      "Pandas": 5009,
      "Shape": 5010,
      "category": 5011,
      "lhs": 5012,
      "Ġ])": 5013,
      "stract": 5014,
      "cedent": 5015,
      "rou": 5016,
      "Ġssh": 5017,
      "admin": 5018,
      "Ġstype": 5019,
      "Ġstorage": 5020,
      "Ġprocessed": 5021,
      "Ġtransition": 5022,
      "world": 5023,
      "trainer": 5024,
      "Ġsetting": 5025,
      "undle": 5026,
      "Ġatt": 5027,
      "Partition": 5028,
      "Loss": 5029,
      "Ġexpand": 5030,
      "Ġsuccess": 5031,
      "ĠIndexError": 5032,
      "Ġconstant": 5033,
      "tected": 5034,
      "deepcopy": 5035,
      "itespace": 5036,
      "Find": 5037,
      "]]:": 5038,
      "balance": 5039,
      "ever": 5040,
      "hyper": 5041,
      "ima": 5042,
      "rary": 5043,
      "ture": 5044,
      "uctions": 5045,
      "win": 5046,
      "èİ": 5047,
      "installed": 5048,
      "remo": 5049,
      "ordered": 5050,
      "Ġfp": 5051,
      "Ġsizes": 5052,
      "Ġstatistics": 5053,
      "optim": 5054,
      "ĠDStream": 5055,
      "plain": 5056,
      "Ġsock": 5057,
      "ĠGPU": 5058,
      "ENV": 5059,
      "Ġoperations": 5060,
      "Ġversions": 5061,
      "crete": 5062,
      "vectors": 5063,
      "Ġactually": 5064,
      "Ġexecution": 5065,
      "Ġlater": 5066,
      "DATA": 5067,
      "capacity": 5068,
      "square": 5069,
      "Ġcomputation": 5070,
      "ModeKeys": 5071,
      "ĠNaN": 5072,
      "çłģ": 5073,
      "èİ·": 5074,
      "80": 5075,
      "CAL": 5076,
      "IF": 5077,
      "Node": 5078,
      "]+": 5079,
      "ient": 5080,
      "void": 5081,
      "čĊĠĠĠĠĠĠĠĠĠĠĠĠĠĠĠĠĠĠĠ": 5082,
      "Ġ9": 5083,
      "letion": 5084,
      "Ġ'{": 5085,
      "Ġ\"__": 5086,
      "Ġexclu": 5087,
      "Ġratio": 5088,
      "Ġsegment": 5089,
      "Ġproperties": 5090,
      "Ġlookup": 5091,
      "typ": 5092,
      "aggreg": 5093,
      "Ġcompress": 5094,
      "Ġcurrently": 5095,
      "packed": 5096,
      "stopping": 5097,
      "ributions": 5098,
      "Ġchunksize": 5099,
      "absolute": 5100,
      "ĠStream": 5101,
      "CESS": 5102,
      "Ġfixed": 5103,
      "Ġoccur": 5104,
      "SV": 5105,
      "USE": 5106,
      "fs": 5107,
      "histogram": 5108,
      "ities": 5109,
      "uch": 5110,
      "è¡": 5111,
      "expi": 5112,
      "strategy": 5113,
      "Ġdeep": 5114,
      "viz": 5115,
      "ĠSup": 5116,
      "ĠAp": 5117,
      "Ġknow": 5118,
      "Extract": 5119,
      "iteral": 5120,
      "ĠLog": 5121,
      "filer": 5122,
      "arest": 5123,
      "unknown": 5124,
      "Ġdependencies": 5125,
      "ĠParams": 5126,
      "ocker": 5127,
      "Ġexecutor": 5128,
      "Server": 5129,
      "rollout": 5130,
      "Adds": 5131,
      "Ġbottom": 5132,
      "Ġcombine": 5133,
      "VALID": 5134,
      "Ġanchor": 5135,
      "09": 5136,
      "LL": 5137,
      "TR": 5138,
      "Wor": 5139,
      "ass": 5140,
      "cannot": 5141,
      "fully": 5142,
      "kes": 5143,
      "lang": 5144,
      "rs": 5145,
      "ring": 5146,
      "Ġla": 5147,
      "ins": 5148,
      "Ġflow": 5149,
      "Ġsafe": 5150,
      "Ġsink": 5151,
      "ravel": 5152,
      "))))": 5153,
      "application": 5154,
      "positions": 5155,
      "ĠTF": 5156,
      "ĠTra": 5157,
      "usage": 5158,
      "Ġlhs": 5159,
      "Ġ{})": 5160,
      "Ġsync": 5161,
      "Ġtuples": 5162,
      "symbols": 5163,
      "Open": 5164,
      "nonzero": 5165,
      "ampler": 5166,
      "author": 5167,
      "ĠCommand": 5168,
      "anchors": 5169,
      "Ġassoci": 5170,
      "Builder": 5171,
      "combine": 5172,
      "loyment": 5173,
      "åĩº": 5174,
      "Ġescape": 5175,
      "çĶ¨": 5176,
      "flange": 5177,
      "SER": 5178,
      "UR": 5179,
      "ims": 5180,
      "ibatch": 5181,
      "å®": 5182,
      "inc": 5183,
      "arter": 5184,
      "anh": 5185,
      "Ġinsert": 5186,
      "ueue": 5187,
      "Ġcover": 5188,
      "asure": 5189,
      "precation": 5190,
      "ĠSub": 5191,
      "ocation": 5192,
      "__.__": 5193,
      "Ġalg": 5194,
      "iterable": 5195,
      "Ġlarge": 5196,
      "Connection": 5197,
      "summaries": 5198,
      "Ġpoints": 5199,
      "pickle": 5200,
      "processor": 5201,
      "Ġbasestring": 5202,
      "linking": 5203,
      "LOSE": 5204,
      "odalities": 5205,
      "Ġcases": 5206,
      "Ġkeepdims": 5207,
      "Resource": 5208,
      "finder": 5209,
      "ugment": 5210,
      "Ġdropna": 5211,
      "Ġepisode": 5212,
      "ABLE": 5213,
      "Ġchanged": 5214,
      "Computes": 5215,
      "pipfile": 5216,
      "048": 5217,
      "squared": 5218,
      "ĠNumber": 5219,
      "ragma": 5220,
      "rtualenv": 5221,
      "antecedent": 5222,
      "55": 5223,
      "MENT": 5224,
      "bad": 5225,
      "every": 5226,
      "pub": 5227,
      "reason": 5228,
      "alg": 5229,
      "lev": 5230,
      "Ġreport": 5231,
      "Ġdashboard": 5232,
      "lash": 5233,
      "Ġmy": 5234,
      "external": 5235,
      "Ġ[_": 5236,
      "quity": 5237,
      "ĠSw": 5238,
      "Ġprovide": 5239,
      "\").": 5240,
      "ĠDis": 5241,
      "Ġyour": 5242,
      "\"][\"": 5243,
      "Ġless": 5244,
      "basename": 5245,
      "Ġrol": 5246,
      "bsocket": 5247,
      "running": 5248,
      "username": 5249,
      "MAP": 5250,
      "LAB": 5251,
      "impl": 5252,
      "DIR": 5253,
      "========": 5254,
      "entities": 5255,
      "ficient": 5256,
      "GER": 5257,
      "Mo": 5258,
      "Sog": 5259,
      "With": 5260,
      "ached": 5261,
      "egg": 5262,
      "jrdd": 5263,
      "lv": 5264,
      "tty": 5265,
      "recur": 5266,
      "ĠĠĠĠĠĠĠĠĠĠĠĠĠĠĠĠĠĠĠĠĠĠĠĠ": 5267,
      "Ġrev": 5268,
      "unsqueeze": 5269,
      "Ġaut": 5270,
      "Ġbn": 5271,
      "Ġstudent": 5272,
      "Ġ')": 5273,
      "allback": 5274,
      "ĠTo": 5275,
      "ilds": 5276,
      "ĠstrName": 5277,
      "ĠClo": 5278,
      "Ġindexes": 5279,
      "Ġsetattr": 5280,
      "Convolution": 5281,
      "Ġintent": 5282,
      "quities": 5283,
      "Ġneg": 5284,
      "blems": 5285,
      "Ġrole": 5286,
      "ĠGroup": 5287,
      "ONE": 5288,
      "Ġlinear": 5289,
      "STR": 5290,
      "Ġones": 5291,
      "ĠRemove": 5292,
      "topk": 5293,
      "RAY": 5294,
      "ĠComp": 5295,
      "Channel": 5296,
      "Ġproduct": 5297,
      "Wrapper": 5298,
      "æĪĲ": 5299,
      "ximate": 5300,
      "èİ·åıĸ": 5301,
      "Sogou": 5302,
      ")()": 5303,
      "AUT": 5304,
      "OS": 5305,
      "_=": 5306,
      "false": 5307,
      "gcs": 5308,
      "nans": 5309,
      "rename": 5310,
      "pear": 5311,
      "dia": 5312,
      "didates": 5313,
      "tok": 5314,
      "Ġ\"-": 5315,
      "asnumpy": 5316,
      "pointer": 5317,
      "iterations": 5318,
      "tfms": 5319,
      "trading": 5320,
      "ĠBooster": 5321,
      "ĠRay": 5322,
      "subtoken": 5323,
      "ĠExtension": 5324,
      "posal": 5325,
      "datasets": 5326,
      "chars": 5327,
      "ROW": 5328,
      "COL": 5329,
      "Ġbottleneck": 5330,
      "aussian": 5331,
      "rouped": 5332,
      "DTYPE": 5333,
      "Flow": 5334,
      "Filter": 5335,
      "Li": 5336,
      "cancel": 5337,
      "dat": 5338,
      "mix": 5339,
      "åŃ": 5340,
      "Ġli": 5341,
      "reuse": 5342,
      "Ġreindex": 5343,
      "Ġinside": 5344,
      "Ġclear": 5345,
      "itu": 5346,
      "ribe": 5347,
      "Ġmodalities": 5348,
      "ely": 5349,
      "Ġnote": 5350,
      "Ġgold": 5351,
      "('_": 5352,
      "vision": 5353,
      "tents": 5354,
      "ured": 5355,
      "ffine": 5356,
      "ĠDo": 5357,
      "Ġopts": 5358,
      "arner": 5359,
      "modi": 5360,
      "placement": 5361,
      "Ġsubprocess": 5362,
      "Ġdatasets": 5363,
      "registry": 5364,
      "Ġexecute": 5365,
      "Iteration": 5366,
      "selected": 5367,
      "ĠTimedelta": 5368,
      "Ġobservation": 5369,
      "tails": 5370,
      "NaT": 5371,
      "enchmark": 5372,
      "'{": 5373,
      ".'": 5374,
      "200": 5375,
      "CLA": 5376,
      "average": 5377,
      "cer": 5378,
      "language": 5379,
      "mu": 5380,
      "xx": 5381,
      "Ġé": 5382,
      "Ġkw": 5383,
      "selection": 5384,
      "enum": 5385,
      "Ġreversed": 5386,
      "Ġpdf": 5387,
      "Ġpragma": 5388,
      "utter": 5389,
      "major": 5390,
      "()}": 5391,
      "Ġcost": 5392,
      "contract": 5393,
      "resample": 5394,
      "ressed": 5395,
      "opts": 5396,
      "raints": 5397,
      "Ġbehavi": 5398,
      "istered": 5399,
      "ĠStop": 5400,
      "buckets": 5401,
      "Ġcollect": 5402,
      "Ġalgo": 5403,
      "Ġdocker": 5404,
      "inear": 5405,
      "ixel": 5406,
      "Loader": 5407,
      "rectories": 5408,
      "distribution": 5409,
      "Ġagenda": 5410,
      "struction": 5411,
      "good": 5412,
      "threads": 5413,
      "Ġhyperparameters": 5414,
      "Ġfollowing": 5415,
      "Executor": 5416,
      "Argument": 5417,
      "So": 5418,
      "hread": 5419,
      "ys": 5420,
      "}\"": 5421,
      "Ġ))": 5422,
      "static": 5423,
      "Ġfolder": 5424,
      "Ġrecords": 5425,
      "union": 5426,
      "Ġdraw": 5427,
      "diffe": 5428,
      "Ġ'')": 5429,
      "Ġgather": 5430,
      "argsort": 5431,
      "pending": 5432,
      "Ġyet": 5433,
      "Ġhelper": 5434,
      "luon": 5435,
      "matches": 5436,
      "Ġpositive": 5437,
      "widths": 5438,
      "Ġdocs": 5439,
      "clas": 5440,
      "Ġbackend": 5441,
      "sampled": 5442,
      "Ġspans": 5443,
      "annotation": 5444,
      "SSL": 5445,
      "Ġsomething": 5446,
      "({'": 5447,
      "Ġfrequency": 5448,
      "Ġseparate": 5449,
      "versal": 5450,
      "ĠConfiguration": 5451,
      "frequency": 5452,
      "Ġrender": 5453,
      "iases": 5454,
      "utterance": 5455,
      "Mon": 5456,
      "xies": 5457,
      "residual": 5458,
      "atis": 5459,
      "meth": 5460,
      "orary": 5461,
      "ential": 5462,
      "endent": 5463,
      "Ġfrozen": 5464,
      "sids": 5465,
      "Ġissubclass": 5466,
      "logit": 5467,
      "trieve": 5468,
      "cifar": 5469,
      "quential": 5470,
      "compression": 5471,
      "Ġ30": 5472,
      "limiter": 5473,
      "ĠUp": 5474,
      "ĠHTML": 5475,
      "initialize": 5476,
      "population": 5477,
      "Ġcalculate": 5478,
      "Ġerrno": 5479,
      "Ġaround": 5480,
      "special": 5481,
      "ributed": 5482,
      "ĠBucket": 5483,
      "CA": 5484,
      "Download": 5485,
      "dashboard": 5486,
      "wb": 5487,
      "ĠĠĠĠĠĠĠĠĠĠ": 5488,
      "individual": 5489,
      "onical": 5490,
      "Ġrewards": 5491,
      "Ġinference": 5492,
      "Ġppo": 5493,
      "rot": 5494,
      "Ġslic": 5495,
      "lish": 5496,
      "adow": 5497,
      "adline": 5498,
      "expect": 5499,
      "Ġdataframe": 5500,
      "Ġrs": 5501,
      "Ġrng": 5502,
      "cached": 5503,
      "ĠLe": 5504,
      "placeholder": 5505,
      "Ġsoftmax": 5506,
      "neighb": 5507,
      "aving": 5508,
      "render": 5509,
      "sock": 5510,
      "Ġspecify": 5511,
      "localize": 5512,
      "grid": 5513,
      "Ġquote": 5514,
      "lasma": 5515,
      "256": 5516,
      "Ġdense": 5517,
      "Ġfunctools": 5518,
      ".)": 5519,
      "=['": 5520,
      "Can": 5521,
      "WN": 5522,
      "cli": 5523,
      "ilab": 5524,
      "micro": 5525,
      "sume": 5526,
      "âĢ": 5527,
      "çİ": 5528,
      "alf": 5529,
      "Ġnone": 5530,
      "Ġrelease": 5531,
      "ceive": 5532,
      "Ġpkg": 5533,
      "Ġaudio": 5534,
      "itch": 5535,
      "Ġbad": 5536,
      "digest": 5537,
      "umb": 5538,
      "atios": 5539,
      "conso": 5540,
      "trust": 5541,
      "teacher": 5542,
      "]).": 5543,
      "Ġbelow": 5544,
      "ĠPO": 5545,
      "cipy": 5546,
      "__))": 5547,
      "Ġcheckpoints": 5548,
      "Progress": 5549,
      "Ġtables": 5550,
      "ĠParser": 5551,
      "credentials": 5552,
      "ĠConvert": 5553,
      "Generates": 5554,
      "parsers": 5555,
      "rules": 5556,
      "tiny": 5557,
      "Ġsimple": 5558,
      "lassifier": 5559,
      "Auth": 5560,
      "Dense": 5561,
      "IP": 5562,
      "UP": 5563,
      "bi": 5564,
      "elem": 5565,
      "jc": 5566,
      "oom": 5567,
      "rl": 5568,
      "since": 5569,
      "Ġurls": 5570,
      "ansitions": 5571,
      "pep": 5572,
      "Ġdid": 5573,
      "oney": 5574,
      "Ġmix": 5575,
      "Ġstill": 5576,
      "Ġ(-": 5577,
      "Ġ[{": 5578,
      "ĊĠĠĠĠĠĊĊĠ": 5579,
      "quent": 5580,
      "Ġconn": 5581,
      "answers": 5582,
      "Ġuses": 5583,
      "addr": 5584,
      "eps": 5585,
      "Ġknown": 5586,
      "ĠNode": 5587,
      "Ġstarting": 5588,
      "pix": 5589,
      "processing": 5590,
      "Ġstatements": 5591,
      "rong": 5592,
      "ĠRedis": 5593,
      "multihead": 5594,
      "creen": 5595,
      "Ġregular": 5596,
      "Ġavg": 5597,
      "aily": 5598,
      "operations": 5599,
      "ĠKeyword": 5600,
      "Iterator": 5601,
      "ĠJava": 5602,
      "Ġchildren": 5603,
      "cumsum": 5604,
      "anchor": 5605,
      "ENDING": 5606,
      "Ġinterpolation": 5607,
      "Ġassociated": 5608,
      "difference": 5609,
      "'\"": 5610,
      ",))": 5611,
      "Bunch": 5612,
      "Cell": 5613,
      "Socket": 5614,
      "\\\"": 5615,
      "pg": 5616,
      "ppo": 5617,
      "åº": 5618,
      "deps": 5619,
      "Ġtre": 5620,
      "algo": 5621,
      "Ġflag": 5622,
      "Ġreader": 5623,
      "Ġcs": 5624,
      "Ġsqu": 5625,
      "Ġbrain": 5626,
      "rics": 5627,
      "exist": 5628,
      "Ġhp": 5629,
      "listdir": 5630,
      "Ġthreshold": 5631,
      "Ġ%(": 5632,
      "objective": 5633,
      "trainable": 5634,
      "ĠFile": 5635,
      "need": 5636,
      "Ġminimum": 5637,
      "mainder": 5638,
      "ĠWechat": 5639,
      "Ġregion": 5640,
      "Ġregistry": 5641,
      "Ġdays": 5642,
      "Ġpackages": 5643,
      "BatchNorm": 5644,
      "antized": 5645,
      "ĠTimestamp": 5646,
      "OrStr": 5647,
      "Metric": 5648,
      "NotFound": 5649,
      "ERSION": 5650,
      "åħ¥": 5651,
      "contains": 5652,
      "anitize": 5653,
      "Entry": 5654,
      "CLASS": 5655,
      "ĠWechatSogou": 5656,
      "34": 5657,
      "Dtype": 5658,
      "PN": 5659,
      "dx": 5660,
      "dash": 5661,
      "nr": 5662,
      "ruid": 5663,
      "Ġ()": 5664,
      "Ġnv": 5665,
      "Ġffn": 5666,
      "Ġfraction": 5667,
      "Ġrestore": 5668,
      "Ġinclu": 5669,
      "Ġpie": 5670,
      "Ġema": 5671,
      "Ġslices": 5672,
      "Ġdash": 5673,
      "firm": 5674,
      "ntax": 5675,
      "Ġ\"\")": 5676,
      "updater": 5677,
      "resnet": 5678,
      "ĠTar": 5679,
      "lists": 5680,
      "quot": 5681,
      "('-": 5682,
      "Ġdeps": 5683,
      "ackage": 5684,
      "ower": 5685,
      "life": 5686,
      "']))": 5687,
      "csr": 5688,
      "Ġalias": 5689,
      "Ġunion": 5690,
      "activations": 5691,
      "ĠFunction": 5692,
      "jectory": 5693,
      "tables": 5694,
      "STM": 5695,
      "allest": 5696,
      "Loop": 5697,
      "Ġtemperature": 5698,
      "cycle": 5699,
      "Ġtrials": 5700,
      "Env": 5701,
      "Ġshap": 5702,
      "Ġpipe": 5703,
      "changes": 5704,
      "Ġzeros": 5705,
      "visit": 5706,
      "ĠABCSeries": 5707,
      "ĠNOTE": 5708,
      "Factory": 5709,
      "classi": 5710,
      "'ll": 5711,
      "(',": 5712,
      "Bar": 5713,
      "Float": 5714,
      "GR": 5715,
      "IC": 5716,
      "MIN": 5717,
      "Writ": 5718,
      "cb": 5719,
      "docker": 5720,
      "flip": 5721,
      "kip": 5722,
      "png": 5723,
      "antile": 5724,
      "Ġreserved": 5725,
      "Ġbs": 5726,
      "provide": 5727,
      "Ġmajor": 5728,
      "visible": 5729,
      "Ġprop": 5730,
      "Ġproper": 5731,
      "Ġprocesses": 5732,
      "Ġsets": 5733,
      "nections": 5734,
      "Ġroute": 5735,
      "Ġcompare": 5736,
      "Ġcomponent": 5737,
      "ĠInstall": 5738,
      "tives": 5739,
      "Ġfilenames": 5740,
      "Ġmoving": 5741,
      "dropna": 5742,
      "pooling": 5743,
      "Ġquot": 5744,
      "1000": 5745,
      "Ġvectors": 5746,
      "writes": 5747,
      "################": 5748,
      "booster": 5749,
      "åįķ": 5750,
      "AXIS": 5751,
      "!')": 5752,
      "/{": 5753,
      "22": 5754,
      "Bo": 5755,
      "Det": 5756,
      "Py": 5757,
      "[%": 5758,
      "cname": 5759,
      "ee": 5760,
      "em": 5761,
      "futures": 5762,
      "mong": 5763,
      "pin": 5764,
      "sin": 5765,
      "ä¹": 5766,
      "inel": 5767,
      "mes": 5768,
      "article": 5769,
      "coef": 5770,
      "Ġrep": 5771,
      "Ġspe": 5772,
      "Ġreturning": 5773,
      "isnan": 5774,
      "Ġexperts": 5775,
      "(\".": 5776,
      "ĠTPU": 5777,
      "outer": 5778,
      "Ġsecurity": 5779,
      "Ġhap": 5780,
      "Ġtimezone": 5781,
      "lugin": 5782,
      "ĠBe": 5783,
      "Ġpointer": 5784,
      "aves": 5785,
      "Ġmxnet": 5786,
      "Storage": 5787,
      "Ġtrack": 5788,
      "interpo": 5789,
      "constants": 5790,
      "Ġfinder": 5791,
      "Ġpickle": 5792,
      "Timeout": 5793,
      "adjusted": 5794,
      "small": 5795,
      "mirror": 5796,
      "MODEL": 5797,
      "Content": 5798,
      "totxt": 5799,
      ")/": 5800,
      "517": 5801,
      "</": 5802,
      "All": 5803,
      "Future": 5804,
      "Symbol": 5805,
      "TION": 5806,
      "aut": 5807,
      "cript": 5808,
      "cert": 5809,
      "lations": 5810,
      "margin": 5811,
      "scheduler": 5812,
      "vas": 5813,
      "è°": 5814,
      "ĠReturn": 5815,
      "Ġpixel": 5816,
      "Ġscreen": 5817,
      "Ġborder": 5818,
      "Ġbatches": 5819,
      "sib": 5820,
      "))]": 5821,
      "conditions": 5822,
      "raylet": 5823,
      "Ġrdd": 5824,
      "Ġparti": 5825,
      "Ġ20": 5826,
      "Ġklass": 5827,
      "Ġpassage": 5828,
      "grade": 5829,
      "grouper": 5830,
      "ness": 5831,
      "projects": 5832,
      "fillna": 5833,
      "128": 5834,
      "Ġ50": 5835,
      "Ġpick": 5836,
      "deredDict": 5837,
      "Checks": 5838,
      "equals": 5839,
      "Ġtarfile": 5840,
      "which": 5841,
      "Ġrules": 5842,
      "Pooling": 5843,
      ")[-": 5844,
      "NS": 5845,
      "cc": 5846,
      "feat": 5847,
      "gold": 5848,
      "kill": 5849,
      "ph": 5850,
      "ration": 5851,
      "xi": 5852,
      "ĠĠĠĠĠĠĠĠĠĠĠĠĠĠĠ": 5853,
      "onic": 5854,
      "rev": 5855,
      "dete": 5856,
      "Ġtexts": 5857,
      "Ġindic": 5858,
      "Ġpub": 5859,
      "Ġpbar": 5860,
      "Ġcum": 5861,
      "dividen": 5862,
      "elt": 5863,
      "Ġstrict": 5864,
      "converter": 5865,
      "Ġexact": 5866,
      "Ġgre": 5867,
      "Ġconverter": 5868,
      "Ġasyn": 5869,
      "aged": 5870,
      "Ġdistance": 5871,
      "most": 5872,
      "cident": 5873,
      "[::-": 5874,
      "agraph": 5875,
      "negative": 5876,
      "ĠOr": 5877,
      "ĠOnly": 5878,
      "Ġbuil": 5879,
      "Ġdisc": 5880,
      "Stat": 5881,
      "Ġurllib": 5882,
      "locale": 5883,
      "Ġscaled": 5884,
      "Ġcommands": 5885,
      "globals": 5886,
      "Ġhandles": 5887,
      "FILE": 5888,
      "Policy": 5889,
      "Message": 5890,
      "ĠmodD": 5891,
      "ullyConnect": 5892,
      "...,": 5893,
      "Ġmodify": 5894,
      "ĠLoad": 5895,
      "ilarity": 5896,
      "åĽŀ": 5897,
      "digit": 5898,
      "Output": 5899,
      "imagenet": 5900,
      "LABEL": 5901,
      "ĠStopIteration": 5902,
      "ĠUpdate": 5903,
      "è°ĥ": 5904,
      "ullyConnected": 5905,
      "Action": 5906,
      "COD": 5907,
      "DB": 5908,
      "Retri": 5909,
      "VERSION": 5910,
      "XX": 5911,
      "snapshot": 5912,
      "vq": 5913,
      "æİ": 5914,
      "erge": 5915,
      "strict": 5916,
      "tical": 5917,
      "Ġresidual": 5918,
      "Ġdst": 5919,
      "Ġdig": 5920,
      "processed": 5921,
      "found": 5922,
      "Ġsess": 5923,
      "Ġvol": 5924,
      "Ġheap": 5925,
      "Values": 5926,
      "works": 5927,
      "Ġalgorithm": 5928,
      "Ġactivations": 5929,
      "ĠGener": 5930,
      "ĠExec": 5931,
      "Ġformatted": 5932,
      "marize": 5933,
      "Ġnetloc": 5934,
      "country": 5935,
      "wraps": 5936,
      "Ġsymbols": 5937,
      "Ġpredicted": 5938,
      "Ġdump": 5939,
      "Compiler": 5940,
      "Default": 5941,
      "ĠCloud": 5942,
      "pixel": 5943,
      "Ġhappen": 5944,
      "!\"": 5945,
      "={}": 5946,
      "CLOSE": 5947,
      "Empty": 5948,
      "Feature": 5949,
      "LD": 5950,
      "Schema": 5951,
      "aiter": 5952,
      "flo": 5953,
      "frozen": 5954,
      "hold": 5955,
      "mnist": 5956,
      "native": 5957,
      "Ġcells": 5958,
      "Ġservice": 5959,
      "ords": 5960,
      "Ġpid": 5961,
      "dictionary": 5962,
      "ado": 5963,
      "Ġisn": 5964,
      "gether": 5965,
      "Ġmp": 5966,
      "Ġmanager": 5967,
      "Ġhand": 5968,
      "Ġenable": 5969,
      "Ġ2048": 5970,
      "Ġobjective": 5971,
      "Ġchunks": 5972,
      "Ġadv": 5973,
      "ĠOR": 5974,
      "Ġprovider": 5975,
      "cular": 5976,
      "integr": 5977,
      "connected": 5978,
      "finalize": 5979,
      "SCENDING": 5980,
      "sessor": 5981,
      "Number": 5982,
      "iddleware": 5983,
      "éĹ´": 5984,
      "AP": 5985,
      "Max": 5986,
      "Tree": 5987,
      "Takes": 5988,
      "VER": 5989,
      "ai": 5990,
      "flag": 5991,
      "ww": 5992,
      "¦Ĥ": 5993,
      "čĊĠĠĠ": 5994,
      "Ġç": 5995,
      "Ġä¸": 5996,
      "Ġcut": 5997,
      "Ġsa": 5998,
      "ragment": 5999,
      "sively": 6000,
      "Ġws": 6001,
      "rical": 6002,
      "Ġtogether": 6003,
      "atial": 6004,
      "Ġ(%": 6005,
      "Ġhooks": 6006,
      "Ġhuman": 6007,
      "verify": 6008,
      "fileobj": 6009,
      "Ġstrategy": 6010,
      "ĠAl": 6011,
      "Ġlogs": 6012,
      "grammar": 6013,
      "INFO": 6014,
      "Ġreading": 6015,
      "interp": 6016,
      "Ġmodules": 6017,
      "LOAD": 6018,
      "ough": 6019,
      "Ġshare": 6020,
      "DIRE": 6021,
      "Ġsentences": 6022,
      "Ġcombined": 6023,
      "Loads": 6024,
      "extensions": 6025,
      "ĠFutureWarning": 6026,
      "ĠWebDriver": 6027,
      "ĠRequestHandler": 6028,
      "Ġterminal": 6029,
      "Ġslc": 6030,
      "trinsic": 6031,
      "Ġdirectly": 6032,
      "18": 6033,
      "Is": 6034,
      "Import": 6035,
      "MM": 6036,
      "SO": 6037,
      "Save": 6038,
      "duration": 6039,
      "rtype": 6040,
      "ç«": 6041,
      "retries": 6042,
      "alker": 6043,
      "cover": 6044,
      "Ġfg": 6045,
      "roker": 6046,
      "Ġcha": 6047,
      "Ġcrayons": 6048,
      "ital": 6049,
      "Ġduration": 6050,
      "Ġ'#": 6051,
      "upported": 6052,
      "Ġ15": 6053,
      "posix": 6054,
      "Ġdetect": 6055,
      "Ġdecimal": 6056,
      "ReLU": 6057,
      "Ġtrunc": 6058,
      "Ġdirectories": 6059,
      "'][": 6060,
      "Install": 6061,
      "Ġshutil": 6062,
      "ĠLO": 6063,
      "rstrip": 6064,
      "Parameter": 6065,
      "checkpoints": 6066,
      "ENS": 6067,
      "pbar": 6068,
      "scales": 6069,
      "runner": 6070,
      "errno": 6071,
      "makedirs": 6072,
      "contin": 6073,
      "Ġinitialize": 6074,
      "Ġcalendar": 6075,
      "Ġportfolio": 6076,
      "hostname": 6077,
      "Ġchanges": 6078,
      "Ġbetter": 6079,
      "Ġadjustments": 6080,
      "strides": 6081,
      "éĩĳ": 6082,
      "Ġvisual": 6083,
      "ä¿¡": 6084,
      "issues": 6085,
      "ĠConfigurationError": 6086,
      "ilabilities": 6087,
      "([\"": 6088,
      "Over": 6089,
      "Sparse": 6090,
      "och": 6091,
      "slots": 6092,
      "tanh": 6093,
      "}{": 6094,
      "å¸": 6095,
      "åĬ": 6096,
      "seek": 6097,
      "oring": 6098,
      "erset": 6099,
      "Ġtakes": 6100,
      "cope": 6101,
      "legate": 6102,
      "Ġfc": 6103,
      "Ġfont": 6104,
      "Ġred": 6105,
      "heap": 6106,
      "unmasked": 6107,
      "utdown": 6108,
      "dian": 6109,
      "fies": 6110,
      "ĠTransformer": 6111,
      "dataframe": 6112,
      "ĠShape": 6113,
      "Ġselection": 6114,
      "Ġlow": 6115,
      "ĠCom": 6116,
      "lying": 6117,
      "configuration": 6118,
      "pie": 6119,
      "reqs": 6120,
      "astic": 6121,
      "regular": 6122,
      "Ġlocale": 6123,
      "expanduser": 6124,
      "Optimizer": 6125,
      "productions": 6126,
      "early": 6127,
      "factory": 6128,
      "transforms": 6129,
      "Logger": 6130,
      "gateway": 6131,
      "ĠBasePandas": 6132,
      "QueryCompiler": 6133,
      "Order": 6134,
      "Ġadjustment": 6135,
      "æĺĵ": 6136,
      "Ġobservations": 6137,
      "Callable": 6138,
      "Ġcredentials": 6139,
      "Ġmodified": 6140,
      "dimensions": 6141,
      "Ġgrid": 6142,
      "æĿĥ": 6143,
      "umbel": 6144,
      "ĠBasePandasDataset": 6145,
      ".\",": 6146,
      "AC": 6147,
      "LS": 6148,
      "Summary": 6149,
      "_{": 6150,
      "hdr": 6151,
      "lated": 6152,
      "rgb": 6153,
      "shell": 6154,
      "}\")": 6155,
      "reload": 6156,
      "unpack": 6157,
      "unused": 6158,
      "Ġplasma": 6159,
      "Ġow": 6160,
      "Ġbold": 6161,
      "ckpt": 6162,
      "conll": 6163,
      "trs": 6164,
      "Ġdete": 6165,
      "callable": 6166,
      "plan": 6167,
      "Remove": 6168,
      "ceptions": 6169,
      "formatter": 6170,
      "ffect": 6171,
      "figsize": 6172,
      "ĠCO": 6173,
      "buil": 6174,
      "Ġyi": 6175,
      "batchnorm": 6176,
      "validation": 6177,
      "Ġ/=": 6178,
      "acency": 6179,
      "Ġdefaultdict": 6180,
      "Ġacc": 6181,
      "Ġbuckets": 6182,
      "Ġroll": 6183,
      "Ġcompat": 6184,
      "nni": 6185,
      "umerical": 6186,
      "orders": 6187,
      "Ġtrading": 6188,
      "ĠParameter": 6189,
      "Decode": 6190,
      "charset": 6191,
      "stimates": 6192,
      "Search": 6193,
      "protobuf": 6194,
      "Ġterms": 6195,
      "ĠState": 6196,
      "Ġ60": 6197,
      "Ġ|=": 6198,
      "TextEncoder": 6199,
      "boundary": 6200,
      "Ġprobability": 6201,
      "Ġautoencoder": 6202,
      "Ġserialization": 6203,
      "Metrics": 6204,
      "Ġfigsize": 6205,
      "Callback": 6206,
      "ĠString": 6207,
      "ĠIterable": 6208,
      "äº¤æĺĵ": 6209,
      "itude": 6210,
      "Be": 6211,
      "Cre": 6212,
      "Cluster": 6213,
      "Min": 6214,
      "Template": 6215,
      "dget": 6216,
      "family": 6217,
      "site": 6218,
      "æŀ": 6219,
      "Ġnb": 6220,
      "angle": 6221,
      "Ġfree": 6222,
      "ram": 6223,
      "Ġdat": 6224,
      "Ġbio": 6225,
      "idget": 6226,
      "Ġhard": 6227,
      "(\"'": 6228,
      "(\"/": 6229,
      "anced": 6230,
      "Ġloaded": 6231,
      "ĠAll": 6232,
      "Ġunused": 6233,
      "masks": 6234,
      "ĠGraph": 6235,
      "Ġminute": 6236,
      "Parallel": 6237,
      "ranges": 6238,
      "Proxy": 6239,
      "Ġrunner": 6240,
      "decoded": 6241,
      "videos": 6242,
      "ĠConv": 6243,
      "double": 6244,
      "Ġprocessing": 6245,
      "UTC": 6246,
      "abspath": 6247,
      "ByKey": 6248,
      "Ġrepresenting": 6249,
      "PathOrStr": 6250,
      "ĠPandasQueryCompiler": 6251,
      "ĠIOError": 6252,
      "ochastic": 6253,
      "FORM": 6254,
      "IM": 6255,
      "LGBM": 6256,
      "Only": 6257,
      "Ren": 6258,
      "Space": 6259,
      "](": 6260,
      "ib": 6261,
      "nlp": 6262,
      "px": 6263,
      "rf": 6264,
      "sections": 6265,
      "oriz": 6266,
      "lems": 6267,
      "Ġrecent": 6268,
      "Ġreceived": 6269,
      "licies": 6270,
      "fiers": 6271,
      "upload": 6272,
      "Ġcookies": 6273,
      "asing": 6274,
      "asof": 6275,
      "apache": 6276,
      "Ġconversion": 6277,
      "Ġmaster": 6278,
      "Ġdevices": 6279,
      "pends": 6280,
      "pypi": 6281,
      "Ġdirection": 6282,
      "ship": 6283,
      "Ġtimestep": 6284,
      "cio": 6285,
      "Ġalive": 6286,
      "Ġadding": 6287,
      "Concat": 6288,
      "quival": 6289,
      "ĠRow": 6290,
      "Ġchecks": 6291,
      "REQU": 6292,
      "wrapped": 6293,
      "Ġcontainer": 6294,
      "finish": 6295,
      "Ġmomentum": 6296,
      "lashes": 6297,
      "Ġmerged": 6298,
      "Char": 6299,
      "Ġmonitor": 6300,
      "Calculate": 6301,
      "Ġshortcut": 6302,
      "Header": 6303,
      "Ġagainst": 6304,
      "çº¿": 6305,
      "remover": 6306,
      "AUTO": 6307,
      "'})": 6308,
      ")\"": 6309,
      "Dropout": 6310,
      "GPU": 6311,
      "PAR": 6312,
      "Slice": 6313,
      "UE": 6314,
      "audio": 6315,
      "cd": 6316,
      "cro": 6317,
      "fast": 6318,
      "large": 6319,
      "math": 6320,
      "ush": 6321,
      "vate": 6322,
      "çĽ": 6323,
      "Ġ~": 6324,
      "Ġtail": 6325,
      "sider": 6326,
      "chunks": 6327,
      "Ġstarts": 6328,
      "Ġparallel": 6329,
      "ĠSlice": 6330,
      "infos": 6331,
      "ipfile": 6332,
      "statements": 6333,
      "Converter": 6334,
      "ĠLabel": 6335,
      "compare": 6336,
      "complex": 6337,
      "ĠOther": 6338,
      "locate": 6339,
      "Ġcontrol": 6340,
      "Ġdiscrete": 6341,
      "dependent": 6342,
      "ĠHow": 6343,
      "filenames": 6344,
      "executable": 6345,
      "LOW": 6346,
      "imple": 6347,
      "TEST": 6348,
      "ä»·": 6349,
      "SIG": 6350,
      "mxnet": 6351,
      "plotlib": 6352,
      "evaluation": 6353,
      "Attention": 6354,
      "mutations": 6355,
      "Validator": 6356,
      "Ġgoing": 6357,
      "Rows": 6358,
      "Ġboundary": 6359,
      "Serializer": 6360,
      "æĹ¶éĹ´": 6361,
      "Initialize": 6362,
      "duplicates": 6363,
      "ĠStreaming": 6364,
      "Duration": 6365,
      "Oper": 6366,
      "TA": 6367,
      "bda": 6368,
      "dst": 6369,
      "fraction": 6370,
      "ifier": 6371,
      "rpc": 6372,
      "ĠZ": 6373,
      "selector": 6374,
      "detach": 6375,
      "student": 6376,
      "alog": 6377,
      "ceil": 6378,
      "Ġcer": 6379,
      "Ġsaved": 6380,
      "ueprint": 6381,
      "lidate": 6382,
      "ambda": 6383,
      "sired": 6384,
      "otonic": 6385,
      "ading": 6386,
      "Ġstatic": 6387,
      "argv": 6388,
      "Ġ\"{}": 6389,
      "aper": 6390,
      "lineno": 6391,
      "Ġsen": 6392,
      "Ġseen": 6393,
      "Ġprevent": 6394,
      "']),": 6395,
      "Ġunpack": 6396,
      "tracker": 6397,
      "Ġaccept": 6398,
      "DataBunch": 6399,
      "sliced": 6400,
      "Ġbackground": 6401,
      "Ġcorpus": 6402,
      "Ġconvolution": 6403,
      "Ġmatched": 6404,
      "nsupported": 6405,
      "Ġregistered": 6406,
      "plies": 6407,
      "skipna": 6408,
      "success": 6409,
      "mutation": 6410,
      "slc": 6411,
      "ĠEnvironment": 6412,
      "markers": 6413,
      "Ġsigma": 6414,
      "spaces": 6415,
      "Distribution": 6416,
      "precationWarning": 6417,
      "ĠSwagger": 6418,
      "Writes": 6419,
      "77": 6420,
      "FC": 6421,
      "Fa": 6422,
      "POR": 6423,
      "Spec": 6424,
      "Tag": 6425,
      "You": 6426,
      "[[": 6427,
      "cnn": 6428,
      "icode": 6429,
      "king": 6430,
      "lt": 6431,
      "nal": 6432,
      "nlevels": 6433,
      "ptime": 6434,
      "pbs": 6435,
      "walk": 6436,
      "xml": 6437,
      "ines": 6438,
      "replic": 6439,
      "members": 6440,
      "Ġeg": 6441,
      "Ġslots": 6442,
      "isy": 6443,
      "thresh": 6444,
      "today": 6445,
      "forms": 6446,
      "Ġord": 6447,
      "Ġdecoding": 6448,
      "ĠSh": 6449,
      "Ġproduce": 6450,
      "Ġvari": 6451,
      "Ġgetter": 6452,
      "ĠDon": 6453,
      "minutes": 6454,
      "Ġlon": 6455,
      "tfm": 6456,
      "updated": 6457,
      "completed": 6458,
      "jectories": 6459,
      "Ġsubclass": 6460,
      "Ġappear": 6461,
      "ĠHDF": 6462,
      "rates": 6463,
      "Ġcomment": 6464,
      "Ġupload": 6465,
      "Ġsummaries": 6466,
      "crease": 6467,
      ":`~": 6468,
      "predictor": 6469,
      "TYPES": 6470,
      "čĊĠĠĠĠĠĠĠĠĠĠĠčĊĠĠĠĠĠĠĠ": 6471,
      "Ġworkers": 6472,
      "DICT": 6473,
      "Ġintegers": 6474,
      "Metadata": 6475,
      "Ġunderlying": 6476,
      "Ġabsolute": 6477,
      "greater": 6478,
      "LOGGER": 6479,
      "è¯ģ": 6480,
      "Algorithm": 6481,
      "deltas": 6482,
      "smoothing": 6483,
      "Ġrollout": 6484,
      "floor": 6485,
      "Clo": 6486,
      "EP": 6487,
      "Java": 6488,
      "Language": 6489,
      "Mar": 6490,
      "NP": 6491,
      "NU": 6492,
      "SY": 6493,
      "Speci": 6494,
      "Window": 6495,
      "][\"": 6496,
      "cpus": 6497,
      "gd": 6498,
      "hand": 6499,
      "ice": 6500,
      "plots": 6501,
      "sma": 6502,
      "wiki": 6503,
      "å¹": 6504,
      "ĶåĽŀ": 6505,
      "ĠĠĠĠĠĠĠĠĠ": 6506,
      "inclu": 6507,
      "erred": 6508,
      "Ġtarg": 6509,
      "ĠĠĠĠĠĠĠĠĠĠĠĠĠĠĠĠĠĠĠĠĠĠĠĠĠĠĠĠĠĠĠĠ": 6510,
      "Ġrepr": 6511,
      "until": 6512,
      "rounds": 6513,
      "Ġcross": 6514,
      "Ġestimator": 6515,
      "Ġetc": 6516,
      "Ġown": 6517,
      "sis": 6518,
      "ulated": 6519,
      "Ġstandard": 6520,
      "asks": 6521,
      "pow": 6522,
      "Ġgates": 6523,
      "Ġguild": 6524,
      "outh": 6525,
      "strptime": 6526,
      "Ġparsing": 6527,
      "minor": 6528,
      "web": 6529,
      "START": 6530,
      "Ġsupports": 6531,
      "Ġpredicate": 6532,
      "Options": 6533,
      "mappings": 6534,
      "resolver": 6535,
      "dicator": 6536,
      "destination": 6537,
      "è¿ĶåĽŀ": 6538,
      "Ġrecursive": 6539,
      "Ġexpire": 6540,
      "IGH": 6541,
      "æĸĩ": 6542,
      "Evalu": 6543,
      "NIST": 6544,
      "ĠCallable": 6545,
      "hdrs": 6546,
      "quivalent": 6547,
      "!\")": 6548,
      "+--------": 6549,
      ".*": 6550,
      ":',": 6551,
      "Queue": 6552,
      "SG": 6553,
      "_:": 6554,
      "cp": 6555,
      "fake": 6556,
      "ia": 6557,
      "mis": 6558,
      "ned": 6559,
      "pprint": 6560,
      "åĨ": 6561,
      "éĢ": 6562,
      "indicator": 6563,
      "delay": 6564,
      "Ġptr": 6565,
      "Ġpol": 6566,
      "Ġcm": 6567,
      "Ġcwd": 6568,
      "Ġsnapshot": 6569,
      "Ġissue": 6570,
      "exceptions": 6571,
      "(\"-": 6572,
      "processes": 6573,
      "ables": 6574,
      "Ġthresh": 6575,
      "quet": 6576,
      "Ġdims": 6577,
      "momentum": 6578,
      "Ġwhole": 6579,
      "Ġunknown": 6580,
      "Ġitself": 6581,
      "ĠBig": 6582,
      "without": 6583,
      "Ġminor": 6584,
      "Ġcomplex": 6585,
      "copyto": 6586,
      "envs": 6587,
      "itemsize": 6588,
      "Ġqry": 6589,
      "ĠParse": 6590,
      "findall": 6591,
      "streams": 6592,
      "Ġcountry": 6593,
      "required": 6594,
      "Ġdummy": 6595,
      "ORDER": 6596,
      "mediate": 6597,
      "Datetime": 6598,
      "Finder": 6599,
      "Softmax": 6600,
      "sibly": 6601,
      "Ed": 6602,
      "Gra": 6603,
      "Imp": 6604,
      "IVE": 6605,
      "NING": 6606,
      "TS": 6607,
      "US": 6608,
      "]*": 6609,
      "guild": 6610,
      "man": 6611,
      "tqdm": 6612,
      "ä¼": 6613,
      "Ġpe": 6614,
      "mesh": 6615,
      "Ġtb": 6616,
      "argest": 6617,
      "enabled": 6618,
      "tifier": 6619,
      "coeff": 6620,
      "anks": 6621,
      "Ġcnn": 6622,
      "Ġsources": 6623,
      "Ġtowards": 6624,
      "ascending": 6625,
      "(\"_": 6626,
      "Ġdec": 6627,
      "Ġxs": 6628,
      "Ġpreserve": 6629,
      "Ġonp": 6630,
      "objs": 6631,
      "omial": 6632,
      "Expected": 6633,
      "updates": 6634,
      "ĠWor": 6635,
      "Ġchecking": 6636,
      "Ġhashes": 6637,
      "DataStruct": 6638,
      "antage": 6639,
      "...')": 6640,
      "Ġevals": 6641,
      "generated": 6642,
      "ĠEOF": 6643,
      "Problem": 6644,
      "SET": 6645,
      "serving": 6646,
      "mlperf": 6647,
      "Ġsklearn": 6648,
      "constraint": 6649,
      "Sequence": 6650,
      "responses": 6651,
      "OffsetTF": 6652,
      "writel": 6653,
      "clone": 6654,
      "cleanup": 6655,
      "OPEN": 6656,
      "Ġplacement": 6657,
      "Ġexplicitly": 6658,
      "Ġentire": 6659,
      "ĠFirst": 6660,
      "Ġparticular": 6661,
      "Ġvolume": 6662,
      "Ġchain": 6663,
      "OffsetTFlags": 6664,
      ")._": 6665,
      "07": 6666,
      "36": 6667,
      "85": 6668,
      "Basic": 6669,
      "Booster": 6670,
      "End": 6671,
      "FullyConnected": 6672,
      "PA": 6673,
      "Use": 6674,
      "]')": 6675,
      "cutoff": 6676,
      "pan": 6677,
      "onal": 6678,
      "Ġrec": 6679,
      "Ġrepeat": 6680,
      "Ġsids": 6681,
      "Ġbracket": 6682,
      "towards": 6683,
      "Ġconsist": 6684,
      "Ġ:-": 6685,
      "])]": 6686,
      "Ġprompt": 6687,
      "Ġvariance": 6688,
      "Ġloader": 6689,
      "001": 6690,
      "Exists": 6691,
      "Ġ..": 6692,
      "Ġpositions": 6693,
      "locations": 6694,
      "Ġtokenizer": 6695,
      "scaling": 6696,
      "ĠHe": 6697,
      "spans": 6698,
      "Ġpermissions": 6699,
      "Ġcomparison": 6700,
      "sessions": 6701,
      "relation": 6702,
      "Delete": 6703,
      "``,": 6704,
      "Ġconvol": 6705,
      "Result": 6706,
      "ookie": 6707,
      "nonterminal": 6708,
      "Ġnormalization": 6709,
      "999": 6710,
      "UNT": 6711,
      "255": 6712,
      "Ġusage": 6713,
      "tasks": 6714,
      "ĠTrading": 6715,
      "DIRECTION": 6716,
      "Failed": 6717,
      "!!": 6718,
      ")-": 6719,
      "+----------------": 6720,
      ":]:": 6721,
      "Dir": 6722,
      "Item": 6723,
      "OB": 6724,
      "Qu": 6725,
      "Red": 6726,
      "Stop": 6727,
      "Wh": 6728,
      "nos": 6729,
      "oot": 6730,
      "pot": 6731,
      "texts": 6732,
      "åľ": 6733,
      "ç®": 6734,
      "ĊĊĠĠĠĠĠĠĠĠĠ": 6735,
      "čĊ": 6736,
      "Ġkwds": 6737,
      "stir": 6738,
      "anity": 6739,
      "Ġincomplete": 6740,
      "Ġpatch": 6741,
      "rois": 6742,
      "route": 6743,
      "Ġcategory": 6744,
      "itect": 6745,
      "Ġdp": 6746,
      "Ġdue": 6747,
      "chron": 6748,
      "edit": 6749,
      "hase": 6750,
      "verity": 6751,
      "Ġresume": 6752,
      "calar": 6753,
      "ĠSH": 6754,
      "kwarg": 6755,
      "Ġkill": 6756,
      "Ġlet": 6757,
      "fixed": 6758,
      "transposed": 6759,
      "Ġaccuracy": 6760,
      "Ġcalling": 6761,
      "STOR": 6762,
      "refresh": 6763,
      "requests": 6764,
      "]]]": 6765,
      "Ġdependency": 6766,
      "binded": 6767,
      "sqla": 6768,
      "creation": 6769,
      "Ġinterval": 6770,
      "stddev": 6771,
      "Ġidxs": 6772,
      "protocol": 6773,
      "chunksize": 6774,
      "Ġcombin": 6775,
      "THON": 6776,
      "Validate": 6777,
      "Ġapproximate": 6778,
      "Ġcreating": 6779,
      "DFU": 6780,
      "Ġidentify": 6781,
      "Ġfiltered": 6782,
      "Ġprojection": 6783,
      "096": 6784,
      "mongo": 6785,
      "writeline": 6786,
      "Dep": 6787,
      "Of": 6788,
      "TC": 6789,
      "equities": 6790,
      "fq": 6791,
      "slashes": 6792,
      "tbl": 6793,
      "inverse": 6794,
      "seg": 6795,
      "Ġta": 6796,
      "Ġtpu": 6797,
      "Ġfore": 6798,
      "()).": 6799,
      "Ġmgr": 6800,
      "Ġstage": 6801,
      "atically": 6802,
      "lens": 6803,
      "Ġ(_": 6804,
      "confidence": 6805,
      "truth": 6806,
      "(\",": 6807,
      "illi": 6808,
      "('.')": 6809,
      "property": 6810,
      "Ġdetails": 6811,
      "Ġproxies": 6812,
      "shims": 6813,
      "Expr": 6814,
      "ĠWhen": 6815,
      "tokenize": 6816,
      "backend": 6817,
      "ĠFilter": 6818,
      "Ġcandidates": 6819,
      "Ġworld": 6820,
      "Ġpypi": 6821,
      "Ġcalls": 6822,
      "Ġpassing": 6823,
      "Ġorders": 6824,
      "PIP": 6825,
      "Ġnonpadding": 6826,
      "Ġagg": 6827,
      "Ġorigin": 6828,
      "constraints": 6829,
      "annotations": 6830,
      "probabilities": 6831,
      "terminated": 6832,
      "serialize": 6833,
      "Ġweighted": 6834,
      "windows": 6835,
      "candidate": 6836,
      "Learner": 6837,
      "ĠDef": 6838,
      "Ġpooling": 6839,
      "hood": 6840,
      "ĠResponse": 6841,
      "Ġannotations": 6842,
      "Ġgood": 6843,
      "tarinfo": 6844,
      "ordinate": 6845,
      "Ġanchors": 6846,
      "segmentation": 6847,
      "provider": 6848,
      "'ve": 6849,
      "(\\": 6850,
      "75": 6851,
      "95": 6852,
      "Cache": 6853,
      "Doc": 6854,
      "Try": 6855,
      "User": 6856,
      "_):": 6857,
      "glob": 6858,
      "gain": 6859,
      "}\\": 6860,
      "åİ": 6861,
      "orn": 6862,
      "ĠĠĠĠĠĠĠĠĠĠĠĠĠĠĠĠĠĠ": 6863,
      "tig": 6864,
      "ceed": 6865,
      "ged": 6866,
      "Ġsz": 6867,
      "ada": 6868,
      "ump": 6869,
      "isna": 6870,
      "Ġmult": 6871,
      "terms": 6872,
      "transition": 6873,
      "iling": 6874,
      "Ġdesired": 6875,
      "')[": 6876,
      "Ġgets": 6877,
      "passage": 6878,
      "buff": 6879,
      "Exp": 6880,
      "=\"\",": 6881,
      "plasma": 6882,
      "activ": 6883,
      "gnitude": 6884,
      "Ġothers": 6885,
      "Database": 6886,
      "Ġcompatible": 6887,
      "Ġimportance": 6888,
      "commission": 6889,
      "Local": 6890,
      "ĠReg": 6891,
      "servation": 6892,
      "Ġloading": 6893,
      "finite": 6894,
      "numbers": 6895,
      "Ġmove": 6896,
      "Ġprotocol": 6897,
      "super": 6898,
      "Account": 6899,
      "åĪĨ": 6900,
      "ĠAsset": 6901,
      "Ġeverything": 6902,
      "blobs": 6903,
      "dispatcher": 6904,
      "æĮģ": 6905,
      "HEADER": 6906,
      "è¡¨": 6907,
      "Like": 6908,
      "Ġbehavior": 6909,
      "ĠOrderedDict": 6910,
      "FORMAT": 6911,
      "ĠOtherwise": 6912,
      ")'": 6913,
      ")*": 6914,
      "*.": 6915,
      "21": 6916,
      ":'": 6917,
      ":.": 6918,
      "DER": 6919,
      "ECT": 6920,
      "FUN": 6921,
      "Pi": 6922,
      "VStore": 6923,
      "[...,": 6924,
      "click": 6925,
      "rng": 6926,
      "ranch": 6927,
      "sect": 6928,
      "Ġtxt": 6929,
      "arith": 6930,
      "Ġireq": 6931,
      "cov": 6932,
      "leg": 6933,
      "leaky": 6934,
      "Ġflip": 6935,
      "Ġretain": 6936,
      "Ġpaper": 6937,
      "uess": 6938,
      "definition": 6939,
      "rices": 6940,
      "Ġtodo": 6941,
      "Ġ'--": 6942,
      "Ġ\"\".": 6943,
      "Ġhit": 6944,
      "Ġmakes": 6945,
      "Ġrnn": 6946,
      "ĠSplit": 6947,
      "ĠSince": 6948,
      "Ġnums": 6949,
      "pared": 6950,
      "shadow": 6951,
      "\"][": 6952,
      "Ġcommit": 6953,
      "Ġstarted": 6954,
      "owner": 6955,
      "INST": 6956,
      "Ġaccep": 6957,
      "Ġcanonical": 6958,
      "TypeError": 6959,
      "Ġcompatibility": 6960,
      "../": 6961,
      "Profile": 6962,
      "region": 6963,
      "FilePath": 6964,
      "searchsorted": 6965,
      "importance": 6966,
      "ĊĠĠĠĠĠĠĠĠĠĠĠĠĠĠĠĠĠĠĠĠĠĠĠĠĠĠĠĠĠĠĠĠĠĠĠĠĠĠĠĠĠĠĠĠĠĠĠĠĠĠĠĠĊĠĠĠĠĠĠĠ": 6967,
      "caps": 6968,
      "Ġface": 6969,
      "linearity": 6970,
      "Regression": 6971,
      "Directory": 6972,
      "ĠPolicy": 6973,
      "ĠExtensionArray": 6974,
      "modified": 6975,
      "clients": 6976,
      "replicas": 6977,
      "\"{": 6978,
      "=',": 6979,
      "Ag": 6980,
      "IMA": 6981,
      "PC": 6982,
      "Port": 6983,
      "Sample": 6984,
      "SQL": 6985,
      "border": 6986,
      "dan": 6987,
      "ftime": 6988,
      "fold": 6989,
      "ffic": 6990,
      "gic": 6991,
      "ji": 6992,
      "klass": 6993,
      "olean": 6994,
      "slash": 6995,
      "tb": 6996,
      "targ": 6997,
      "åī": 6998,
      "æģ": 6999,
      "è¾": 7000,
      "onents": 7001,
      "recon": 7002,
      "recurrent": 7003,
      "reserved": 7004,
      "aly": 7005,
      "Ġnr": 7006,
      "Ġns": 7007,
      "Ġreferences": 7008,
      "unstack": 7009,
      "Ġinc": 7010,
      "Ġinst": 7011,
      "Ġcert": 7012,
      "libs": 7013,
      "Ġbind": 7014,
      "riend": 7015,
      "Ġmid": 7016,
      "Ġhdfs": 7017,
      "resume": 7018,
      "dataType": 7019,
      "Ġcontents": 7020,
      "Ġconsider": 7021,
      "logs": 7022,
      "profiler": 7023,
      "vidia": 7024,
      "')]": 7025,
      "Ġdividen": 7026,
      "boolean": 7027,
      "ĠPY": 7028,
      "Ġ200": 7029,
      "validator": 7030,
      "mom": 7031,
      "scan": 7032,
      "Ġunless": 7033,
      "grams": 7034,
      "REUSE": 7035,
      "Ġapplication": 7036,
      "SEP": 7037,
      "LECT": 7038,
      "Ġinterp": 7039,
      "ä¸į": 7040,
      "lotter": 7041,
      "Ġmatplotlib": 7042,
      "Ġpredictor": 7043,
      "Unable": 7044,
      "Ġcalcul": 7045,
      "FILEN": 7046,
      "Ġepochs": 7047,
      "ĠVariable": 7048,
      "ĠSecurity": 7049,
      "Point": 7050,
      "ä»£": 7051,
      "Ġprimary": 7052,
      "10000": 7053,
      "Ġpositional": 7054,
      "adjustment": 7055,
      "Intent": 7056,
      "Ġdifference": 7057,
      "roller": 7058,
      "Ġreplacement": 7059,
      "sized": 7060,
      "Ġsimulation": 7061,
      "combined": 7062,
      "PROCESS": 7063,
      "ĠStruct": 7064,
      "SPAR": 7065,
      "ryption": 7066,
      "speech": 7067,
      "overrides": 7068,
      "ResourceException": 7069,
      "consolidate": 7070,
      "Ġasyncio": 7071,
      "å¸Ĥ": 7072,
      "Ġowner": 7073,
      "ĠTradingAlgorithm": 7074,
      "tiguous": 7075,
      ".\\": 7076,
      "28": 7077,
      "Async": 7078,
      "Back": 7079,
      "BACK": 7080,
      "Dec": 7081,
      "HO": 7082,
      "Merge": 7083,
      "On": 7084,
      "Thread": 7085,
      "[~": 7086,
      "]'": 7087,
      "cm": 7088,
      "css": 7089,
      "duct": 7090,
      "eof": 7091,
      "front": 7092,
      "ition": 7093,
      "money": 7094,
      "pdf": 7095,
      "æĶ": 7096,
      "é¢": 7097,
      "recogn": 7098,
      "arp": 7099,
      "coordinates": 7100,
      "Ġremainder": 7101,
      "Ġpat": 7102,
      "lihood": 7103,
      "rive": 7104,
      "iso": 7105,
      "putmask": 7106,
      "Ġ\"\"\"": 7107,
      "setter": 7108,
      "Ġcos": 7109,
      "transitions": 7110,
      "ĠTh": 7111,
      "ĠTree": 7112,
      "indexers": 7113,
      "Rest": 7114,
      "Ġprog": 7115,
      "Ġdefinition": 7116,
      "ĠPackage": 7117,
      "dicts": 7118,
      "='.": 7119,
      "Ġchoices": 7120,
      "vertex": 7121,
      "ĠWindow": 7122,
      "mapPartitions": 7123,
      "Ġnearest": 7124,
      "ĠRange": 7125,
      "pic": 7126,
      "Ġrot": 7127,
      "Ġminutes": 7128,
      "signed": 7129,
      "METH": 7130,
      "Ġmultihead": 7131,
      "distributions": 7132,
      "multiply": 7133,
      "Ġallows": 7134,
      "ä¸º": 7135,
      "imports": 7136,
      "Ġsampled": 7137,
      "Ġspinner": 7138,
      "terministic": 7139,
      "Ġ10000": 7140,
      "POT": 7141,
      "Ġstacked": 7142,
      "discriminator": 7143,
      "3339": 7144,
      "Ġlineno": 7145,
      "projection": 7146,
      "email": 7147,
      "ĠSuperset": 7148,
      "atisfied": 7149,
      "æİ¥": 7150,
      "regularizer": 7151,
      "((\"": 7152,
      ".\".": 7153,
      "26": 7154,
      ":\\": 7155,
      "Scheduler": 7156,
      "Tuner": 7157,
      "bracket": 7158,
      "eq": 7159,
      "eager": 7160,
      "hing": 7161,
      "ov": 7162,
      "sse": 7163,
      "¬¡": 7164,
      "åĢ": 7165,
      "æ¬¡": 7166,
      "è§": 7167,
      "ĊĠĠ": 7168,
      "deserializer": 7169,
      "tific": 7170,
      "Ġnative": 7171,
      "Ġpot": 7172,
      "Ġpnl": 7173,
      "Ġclusters": 7174,
      "getitem": 7175,
      "ctr": 7176,
      "simul": 7177,
      "Ġwrong": 7178,
      "ulum": 7179,
      "experiments": 7180,
      "Ġ'<": 7181,
      "Ġtfms": 7182,
      "permissions": 7183,
      "intain": 7184,
      "strftime": 7185,
      "Ġasync": 7186,
      "Ġuint": 7187,
      "Ġproblems": 7188,
      "dentity": 7189,
      "ĠPlease": 7190,
      "ĠPipfile": 7191,
      "Ġ24": 7192,
      "Ġhack": 7193,
      "Ġys": 7194,
      "='',": 7195,
      "daily": 7196,
      "omatically": 7197,
      "ĠNet": 7198,
      "Ġlate": 7199,
      "tfds": 7200,
      "ĠMA": 7201,
      "based": 7202,
      "feed": 7203,
      "Ġbounds": 7204,
      "Ġapplied": 7205,
      "Ġitertools": 7206,
      "Ġgeneration": 7207,
      "Ġdeployment": 7208,
      "Ġupcast": 7209,
      "Ġvery": 7210,
      "FIX": 7211,
      "ifar": 7212,
      "Tables": 7213,
      "Loading": 7214,
      "encdec": 7215,
      "functools": 7216,
      "Ġprobabilities": 7217,
      "Ġauthor": 7218,
      "Trainer": 7219,
      "initions": 7220,
      "Ġmutation": 7221,
      "Constructs": 7222,
      "ticks": 7223,
      "Ġdilation": 7224,
      "æĮĩ": 7225,
      "ĠMessage": 7226,
      "mkdir": 7227,
      "Ġaggregate": 7228,
      "Ġholi": 7229,
      "Ġincluding": 7230,
      "continuous": 7231,
      "ĠHowever": 7232,
      ">`": 7233,
      "Api": 7234,
      "Aug": 7235,
      "ASCENDING": 7236,
      "IES": 7237,
      "Long": 7238,
      "bra": 7239,
      "band": 7240,
      "pat": 7241,
      "rv": 7242,
      "uilds": 7243,
      "zoom": 7244,
      "}:": 7245,
      "±»": 7246,
      "å½": 7247,
      "è½": 7248,
      "Ġ^": 7249,
      "once": 7250,
      "stochastic": 7251,
      "Ġfalse": 7252,
      "Ġretries": 7253,
      "urrent": 7254,
      "under": 7255,
      "Ġifnone": 7256,
      "Ġevents": 7257,
      "Ġdttm": 7258,
      "))[": 7259,
      "Ġnothing": 7260,
      "endor": 7261,
      "endpoint": 7262,
      "Ġgap": 7263,
      "Ġgrouped": 7264,
      "ĠThere": 7265,
      "Ġconso": 7266,
      "Ġconfirm": 7267,
      "prompt": 7268,
      "Ġmem": 7269,
      "dated": 7270,
      "Ġdescriptor": 7271,
      "Ġdelimiter": 7272,
      "tended": 7273,
      "nums": 7274,
      "ĠCON": 7275,
      "ĠDep": 7276,
      "imgs": 7277,
      "Conf": 7278,
      "Ġunlock": 7279,
      "ĠMap": 7280,
      "Ġ<<": 7281,
      "ĠLSTM": 7282,
      "sums": 7283,
      "ĠWh": 7284,
      "quick": 7285,
      "corpus": 7286,
      "Types": 7287,
      "Ġmasks": 7288,
      "ĠGuild": 7289,
      "ĠInstance": 7290,
      "ENCE": 7291,
      "acter": 7292,
      "Ġoverlap": 7293,
      "ALI": 7294,
      "Ġinitialized": 7295,
      "Ġtemporary": 7296,
      "Ġupdates": 7297,
      "vocabulary": 7298,
      "positional": 7299,
      "ä¸Ń": 7300,
      "probability": 7301,
      "POST": 7302,
      "serialized": 7303,
      "Select": 7304,
      "antize": 7305,
      "patterns": 7306,
      "invoke": 7307,
      "MPLE": 7308,
      "Ġsmallest": 7309,
      "Ġindptr": 7310,
      "patcher": 7311,
      "lapsed": 7312,
      "ĠInvalidResourceException": 7313,
      "ĠWebSocket": 7314,
      "ç»ĵ": 7315,
      "Annot": 7316,
      "ĠDEFAULT": 7317,
      "recursive": 7318,
      "xiv": 7319,
      "ĠStatement": 7320,
      "æŀľ": 7321,
      ")|": 7322,
      ")',": 7323,
      "23": 7324,
      "512": 7325,
      "Lists": 7326,
      "Pri": 7327,
      "TB": 7328,
      "Trial": 7329,
      "TENT": 7330,
      "_'": 7331,
      "aise": 7332,
      "eger": 7333,
      "gap": 7334,
      "js": 7335,
      "pull": 7336,
      "éĻ": 7337,
      "ĊĠĠĠĠĠĠ": 7338,
      "Ġ].": 7339,
      "into": 7340,
      "inary": 7341,
      "erase": 7342,
      "Ġtbl": 7343,
      "arxiv": 7344,
      "tification": 7345,
      "coco": 7346,
      "anded": 7347,
      "Ġfront": 7348,
      "Ġcancel": 7349,
      "()])": 7350,
      "Ġmnist": 7351,
      "Ġ\")": 7352,
      "Ġ[%": 7353,
      "Ġcoordinates": 7354,
      "(\"{": 7355,
      "Ġgym": 7356,
      "ĠTry": 7357,
      "perspec": 7358,
      "Ġthree": 7359,
      "Ġmachine": 7360,
      "Ġorient": 7361,
      "Ġratios": 7362,
      "formats": 7363,
      "ĠItem": 7364,
      "caped": 7365,
      "ĠAc": 7366,
      "Ġwhose": 7367,
      "Ġunits": 7368,
      "ĠLayer": 7369,
      "ĠWiki": 7370,
      "Ġ{},": 7371,
      "ĠFloat": 7372,
      "subprocess": 7373,
      "Ġtransformed": 7374,
      "Ġcompletion": 7375,
      "datetimelike": 7376,
      "netloc": 7377,
      "ĠEach": 7378,
      "Ġinterface": 7379,
      "Ġprocessor": 7380,
      "FIG": 7381,
      "Ġresolution": 7382,
      "æķ´": 7383,
      "Ġarticle": 7384,
      "Ġconstraint": 7385,
      "Ġlibrary": 7386,
      "Ġserializer": 7387,
      "Transform": 7388,
      "ĠTensorboard": 7389,
      "ĠNaT": 7390,
      "ĠSome": 7391,
      "Ġwritten": 7392,
      "ĠTrainer": 7393,
      "Internal": 7394,
      "çİ°": 7395,
      "Ġgreater": 7396,
      "ĠORDER": 7397,
      "integrity": 7398,
      "ç«ł": 7399,
      "\"%": 7400,
      ":,": 7401,
      "Su": 7402,
      "Using": 7403,
      "_[": 7404,
      "affe": 7405,
      "affine": 7406,
      "bundle": 7407,
      "cnt": 7408,
      "fficient": 7409,
      "human": 7410,
      "kl": 7411,
      "ql": 7412,
      "uuid": 7413,
      "ye": 7414,
      "å§": 7415,
      "å¯": 7416,
      "å·": 7417,
      "increment": 7418,
      "stit": 7419,
      "arily": 7420,
      "ane": 7421,
      "Ġfutures": 7422,
      "Ġinp": 7423,
      "Ġpush": 7424,
      "Ġcss": 7425,
      "Ġcuda": 7426,
      "Ġsmooth": 7427,
      "Ġsgd": 7428,
      "Ġbare": 7429,
      "Ġbatched": 7430,
      "ulate": 7431,
      "ulative": 7432,
      "editable": 7433,
      "Ġmu": 7434,
      "elu": 7435,
      "Ġhold": 7436,
      "conditional": 7437,
      "contiguous": 7438,
      "queries": 7439,
      "Ġconnections": 7440,
      "outine": 7441,
      "Ġresnet": 7442,
      "proposal": 7443,
      "timesteps": 7444,
      "Ġmembers": 7445,
      "Ġmaps": 7446,
      "Ġdeal": 7447,
      "tep": 7448,
      "ĠSer": 7449,
      "colz": 7450,
      "colors": 7451,
      "Ġvmax": 7452,
      "izing": 7453,
      "ĠCSV": 7454,
      "lockfile": 7455,
      "rowser": 7456,
      "ĠNow": 7457,
      "Ġjc": 7458,
      "transfer": 7459,
      "agonal": 7460,
      "Ġdoing": 7461,
      "Ġdouble": 7462,
      "ĠObject": 7463,
      "Ġsubtoken": 7464,
      "Ġsubarr": 7465,
      "fns": 7466,
      "READ": 7467,
      "push": 7468,
      "ird": 7469,
      "ĊĠĠĠĠĠĠĠĠĠĠĠĠĠĠĠĠĠĠĠĠĠĠĠĠĠĠĠĠĠĠĠĊĠ": 7470,
      "ARD": 7471,
      "Ġgrouper": 7472,
      "Ġready": 7473,
      "1024": 7474,
      "LED": 7475,
      "LOCAL": 7476,
      "Reshape": 7477,
      "Encoding": 7478,
      "Ġspatial": 7479,
      "dummy": 7480,
      "åı¯": 7481,
      "Ġtests": 7482,
      "exprs": 7483,
      "ĠArray": 7484,
      "Ġedit": 7485,
      "ĠDeprecationWarning": 7486,
      "Ġpatterns": 7487,
      "ĠSparseSeries": 7488,
      "DOWN": 7489,
      "ĠIOLoop": 7490,
      "æĹ¥æľŁ": 7491,
      "Ġrlmb": 7492,
      "lvl": 7493,
      "Month": 7494,
      "Ġdiscriminator": 7495,
      "ç®Ĺ": 7496,
      "STORAGE": 7497,
      "\"'": 7498,
      ")].": 7499,
      ",.": 7500,
      "40": 7501,
      "FE": 7502,
      "FT": 7503,
      "Flatten": 7504,
      "MI": 7505,
      "MAR": 7506,
      "Send": 7507,
      "beat": 7508,
      "fcounts": 7509,
      "gres": 7510,
      "middleware": 7511,
      "phi": 7512,
      "sink": 7513,
      "Ġser": 7514,
      "retrieve": 7515,
      "decimal": 7516,
      "erm": 7517,
      "leaf": 7518,
      "Ġfs": 7519,
      "peg": 7520,
      "Ġast": 7521,
      "lopen": 7522,
      "Ġscipy": 7523,
      "chart": 7524,
      "parsing": 7525,
      "toml": 7526,
      "Ġ\"\",": 7527,
      "Ġcore": 7528,
      "olve": 7529,
      "listlike": 7530,
      "etag": 7531,
      "Ġthings": 7532,
      "timescale": 7533,
      "Ġdetermine": 7534,
      "Ġxmin": 7535,
      "Ref": 7536,
      "press": 7537,
      "artbeat": 7538,
      "ĠDoc": 7539,
      "Ġhaving": 7540,
      "mins": 7541,
      "iming": 7542,
      "websocket": 7543,
      "background": 7544,
      "component": 7545,
      "Ġsoft": 7546,
      "pick": 7547,
      "Ġbounding": 7548,
      "ocabulary": 7549,
      "Parses": 7550,
      "Ġcompleted": 7551,
      "RED": 7552,
      "evals": 7553,
      "wordTextEncoder": 7554,
      "generation": 7555,
      "{}_": 7556,
      "ĠRead": 7557,
      "Ġmultiplier": 7558,
      "coming": 7559,
      "Ġordering": 7560,
      "dists": 7561,
      "marks": 7562,
      "ALL": 7563,
      "Ġusers": 7564,
      "Ġdistro": 7565,
      "iliary": 7566,
      "osen": 7567,
      "Adapter": 7568,
      "åĪ°": 7569,
      "Ġextracted": 7570,
      "Ġextensions": 7571,
      "Change": 7572,
      "ĠResource": 7573,
      "mutate": 7574,
      "dimensional": 7575,
      "Ġmarkers": 7576,
      "åįĸ": 7577,
      "Ġduplicates": 7578,
      "Ġmismatch": 7579,
      "TIMEOUT": 7580,
      "Ġpieces": 7581,
      "Retrieve": 7582,
      "ĠCompute": 7583,
      "Reduce": 7584,
      "ornado": 7585,
      "IMAGE": 7586,
      "æģ¯": 7587,
      "(('": 7588,
      "27": 7589,
      ":\")": 7590,
      "Draw": 7591,
      "Event": 7592,
      "OK": 7593,
      "OM": 7594,
      "RU": 7595,
      "]/": 7596,
      "])))": 7597,
      "clusters": 7598,
      "pas": 7599,
      "ãĢ": 7600,
      "æ²": 7601,
      "Ġvec": 7602,
      "sell": 7603,
      "Ġfallback": 7604,
      "uncond": 7605,
      "undefined": 7606,
      "Ġeasi": 7607,
      "rac": 7608,
      "Ġbits": 7609,
      "elded": 7610,
      "Ġhour": 7611,
      "Ġhalf": 7612,
      "ably": 7613,
      "Ġgan": 7614,
      "Ġconditions": 7615,
      "permission": 7616,
      "outdated": 7617,
      "virtualenv": 7618,
      "Ġvan": 7619,
      "Ġweb": 7620,
      "Ġdefine": 7621,
      "paces": 7622,
      "ĠDet": 7623,
      "Ġdiv": 7624,
      "ĠPanel": 7625,
      "minibatch": 7626,
      "moves": 7627,
      "__\",": 7628,
      "__')": 7629,
      "Ġwhitespace": 7630,
      "ponential": 7631,
      "starting": 7632,
      "Ġneighb": 7633,
      "aging": 7634,
      "Ġactiv": 7635,
      "ĠOper": 7636,
      "usecols": 7637,
      "Ġminibatch": 7638,
      "ĠUser": 7639,
      "Ġpymongo": 7640,
      "{}]": 7641,
      "Ġruntime": 7642,
      "comment": 7643,
      "Ġtraces": 7644,
      "Ġgeneric": 7645,
      "Ġtensorflow": 7646,
      "riculum": 7647,
      "ä¸Ĭ": 7648,
      "predicate": 7649,
      "Engine": 7650,
      "Ġchars": 7651,
      "stimate": 7652,
      "Ġerrs": 7653,
      "Ġglobals": 7654,
      "Ġvirtualenv": 7655,
      "ĠArrow": 7656,
      "({\"": 7657,
      "Ġtransforms": 7658,
      "ĊĠĠĠĠĠĠĠĠĠĠĠĠĠĠĠĠĠĠĠĠĠĠĠĠĠĠĠĠĠĠĠĠĠĠĠĠĠĠĠĠĠĠĠĠĠĠĠĠĠĠĠĠĠĠĠĠĠĠĠĊĠĠĠ": 7659,
      "Ġserialized": 7660,
      "Ġbeginning": 7661,
      "éĩı": 7662,
      "weekday": 7663,
      "Ġsmaller": 7664,
      "neighbor": 7665,
      "Status": 7666,
      "¦Ĥæŀľ": 7667,
      "itecture": 7668,
      "fficult": 7669,
      "ĠRangeIndex": 7670,
      "(%": 7671,
      "06": 7672,
      "BY": 7673,
      "Crop": 7674,
      "Could": 7675,
      "au": 7676,
      "cwd": 7677,
      "dynamic": 7678,
      "eves": 7679,
      "lstrip": 7680,
      "ndims": 7681,
      "sumer": 7682,
      "sanitize": 7683,
      "uma": 7684,
      "yntax": 7685,
      "æ¯": 7686,
      "information": 7687,
      "rees": 7688,
      "ero": 7689,
      "strap": 7690,
      "Ġturn": 7691,
      "around": 7692,
      "legacy": 7693,
      "Ġrecall": 7694,
      "Ġcc": 7695,
      "Ġdaily": 7696,
      "parallel": 7697,
      "ellow": 7698,
      "))):": 7699,
      "Ġ''.": 7700,
      "Ġ''),": 7701,
      "percent": 7702,
      "mbo": 7703,
      "plus": 7704,
      "pret": 7705,
      "ĠSkip": 7706,
      "trigger": 7707,
      "Ġweek": 7708,
      "ĠCan": 7709,
      "']]": 7710,
      "moji": 7711,
      "track": 7712,
      "ĠMo": 7713,
      "ĠModule": 7714,
      "ĠMax": 7715,
      "ĠLambda": 7716,
      "transformed": 7717,
      "Ġnever": 7718,
      "corder": 7719,
      "ĠRGB": 7720,
      "Ġranges": 7721,
      "Ġaccumul": 7722,
      "ĠOn": 7723,
      "subplots": 7724,
      "Ġattempt": 7725,
      "newaxis": 7726,
      "ĠExtract": 7727,
      "convolution": 7728,
      "ATCH": 7729,
      "Ġiteritems": 7730,
      "Ġ4096": 7731,
      "pointment": 7732,
      "Ġpossibly": 7733,
      "shake": 7734,
      "Ġuniform": 7735,
      "åı·": 7736,
      "Ġplural": 7737,
      "AND": 7738,
      "ĠUnicode": 7739,
      "...)": 7740,
      "SCAL": 7741,
      "Ġalphabet": 7742,
      "ĊĠĠĠĠĠĠĠĠĠĠĠĠĠĠĠĠĠĠĠĠĠĠĠĠĠĠĠĠĠĠĠĠĠĠĠĠĠĠĠĠĠĠĠĠĠĠĠĠĠĠĠĠĠĊĠĠĠĠĠĠĠ": 7743,
      "Ġthreads": 7744,
      "VALUE": 7745,
      "descr": 7746,
      "ĊĠĠĠĠĠĠĠĠĠĠĠĠĠĠĠĠĠĠĠĠĠĠĠĠĠĠĠĠĠĠĠĠĠĠĠĠĠĠĠĠĠĠĠĠĠĠĠĠĠĠĠĠĠĠĠĠĠĠĠĠĠĠĠĊĠĠĠĠĠĠĠ": 7747,
      "ĠEnsure": 7748,
      "Ġexpressions": 7749,
      "Ġtrim": 7750,
      "EXT": 7751,
      "median": 7752,
      "Ġfilled": 7753,
      "lassification": 7754,
      "Ġwriting": 7755,
      "Ġadjacency": 7756,
      "Ġperformance": 7757,
      "Ġ'{}'": 7758,
      "ĠBlockManager": 7759,
      "PYTHON": 7760,
      "Ġlockfile": 7761,
      "rypto": 7762,
      "Ġentities": 7763,
      "Ġpriority": 7764,
      "Ġconflict": 7765,
      "provided": 7766,
      "åŃĹ": 7767,
      "CACHE": 7768,
      "Box": 7769,
      "dividends": 7770,
      "Ġdigits": 7771,
      "Ġadvanced": 7772,
      "DecodeError": 7773,
      "SYM": 7774,
      "chronous": 7775,
      "'>": 7776,
      "(?": 7777,
      ":\",": 7778,
      ":')": 7779,
      "CATION": 7780,
      "Do": 7781,
      "Fi": 7782,
      "II": 7783,
      "MS": 7784,
      "ND": 7785,
      "PT": 7786,
      "TRI": 7787,
      "bboxes": 7788,
      "fact": 7789,
      "gating": 7790,
      "jpg": 7791,
      "rhs": 7792,
      "saving": 7793,
      "tm": 7794,
      "ton": 7795,
      "wik": 7796,
      "deleted": 7797,
      "metic": 7798,
      "stored": 7799,
      "Ġnrow": 7800,
      "Ġfine": 7801,
      "Ġrepe": 7802,
      "Ġpla": 7803,
      "Ġphi": 7804,
      "Ġcpu": 7805,
      "Ġeos": 7806,
      "Ġequity": 7807,
      "Ġss": 7808,
      "lazy": 7809,
      "Ġwon": 7810,
      "uming": 7811,
      "ritic": 7812,
      "isin": 7813,
      "Ġmlper": 7814,
      "resses": 7815,
      "trc": 7816,
      "(\"--": 7817,
      "olver": 7818,
      "Ġthrow": 7819,
      "Ġxmoe": 7820,
      "calculate": 7821,
      "Ġraised": 7822,
      "tribs": 7823,
      "Ġlocs": 7824,
      "ĠDI": 7825,
      "ĠDi": 7826,
      "ĠDAT": 7827,
      "ĠPPO": 7828,
      "Ġ201": 7829,
      "rowd": 7830,
      "ĠName": 7831,
      "Ġchoice": 7832,
      "Ġfileobj": 7833,
      "Ġsharded": 7834,
      "note": 7835,
      "submit": 7836,
      "Ġzone": 7837,
      "libFunc": 7838,
      "closure": 7839,
      "Ġgrammar": 7840,
      "Ġtrajectory": 7841,
      "regression": 7842,
      "execution": 7843,
      "Coun": 7844,
      "Ġtesting": 7845,
      "æľ¬": 7846,
      "Ġvistir": 7847,
      "Ġresolver": 7848,
      "inferred": 7849,
      "Predict": 7850,
      "Ġlinking": 7851,
      "ĊĠĠĠĠĠĠĠĠĠĠĠĠĠĠĠĠĠĠĠĠĠĠĠĠĠĠĠĠĠĠĠĠĠĠĠĠĠĠĠĠĠĠĠĠĠĠĠĠĠĠĠĠĠĠĠĠĠĠĠĠĠĠĠĠĠĠĠĠĠĠĠĠĠĠĠĠĠĠĠĠĠĠ": 7852,
      "MLlibFunc": 7853,
      "boundaries": 7854,
      "ĊĠĠĠĠĠĠĠĠĠĠĠĠĠĠĠĠĠĠĠĠĠĠĠĠĠĠĠĠĠĠĠĠĠĠĠĠĠĠĠĠĠĠĠĠĠĠĠĠĠĠĠĠĠĠĊĠĠĠĠĠĠĠ": 7855,
      "specific": 7856,
      "ĠTensorFlow": 7857,
      "container": 7858,
      "Ġfaster": 7859,
      "Ġfastpath": 7860,
      "Ġlinks": 7861,
      "Ġdilations": 7862,
      "æł¼": 7863,
      "æłĩ": 7864,
      "plainer": 7865,
      "rollouts": 7866,
      "REQUENCE": 7867,
      "åīį": 7868,
      "Ġmlperf": 7869,
      "86": 7870,
      "Classifier": 7871,
      "EVAL": 7872,
      "MNIST": 7873,
      "Ops": 7874,
      "Pack": 7875,
      "Sim": 7876,
      "Sends": 7877,
      "Unsupported": 7878,
      "]\",": 7879,
      "ipro": 7880,
      "jar": 7881,
      "lers": 7882,
      "nil": 7883,
      "qry": 7884,
      "tuner": 7885,
      "voice": 7886,
      "xlabel": 7887,
      "çĲ": 7888,
      "inspect": 7889,
      "reen": 7890,
      "deadline": 7891,
      "Ġtqdm": 7892,
      "Ġtasks": 7893,
      "ale": 7894,
      "Ġix": 7895,
      "Ġnrows": 7896,
      "Ġfall": 7897,
      "Ġrename": 7898,
      "Ġreally": 7899,
      "Ġints": 7900,
      "Ġcar": 7901,
      "Ġcatch": 7902,
      "Ġsqueeze": 7903,
      "otstrap": 7904,
      "cho": 7905,
      "isdigit": 7906,
      "Ġstand": 7907,
      "Ġcov": 7908,
      "Ġcoco": 7909,
      "Ġcoef": 7910,
      "appro": 7911,
      "Ġgluon": 7912,
      "ĠTPOT": 7913,
      "ewidth": 7914,
      "Ġxmax": 7915,
      "Ġraises": 7916,
      "Ġleave": 7917,
      "Ġlegacy": 7918,
      "ĠMar": 7919,
      "ĊĠĠĠĠĠĠĠĠĠĠĠĠĠĠĠĠĠĠĠĠĠĠĠĠĠĠĠĠĠĠĠĠĠĠĠĠĠĠĠĠĠĠĠĠĠĠĠĠĊĠĠĠ": 7920,
      "ĠWrite": 7921,
      "ĠRNN": 7922,
      "())[": 7923,
      "fest": 7924,
      "Ġaddr": 7925,
      "Ġvalidator": 7926,
      "Ġdisk": 7927,
      "Ġdicts": 7928,
      "defaultdict": 7929,
      "DEO": 7930,
      "ĠcallMLlibFunc": 7931,
      "tensorboard": 7932,
      "availabilities": 7933,
      "Ġanything": 7934,
      "nccl": 7935,
      "Ġcontinuous": 7936,
      "currentIntent": 7937,
      "cret": 7938,
      "PIPE": 7939,
      "Ġdistributions": 7940,
      "Results": 7941,
      "gence": 7942,
      "Ġdropped": 7943,
      "åıĤ": 7944,
      "Ġquarter": 7945,
      "Ġenvironments": 7946,
      "ABC": 7947,
      "UNK": 7948,
      "skipped": 7949,
      "Applies": 7950,
      "Ġconcaten": 7951,
      "Ġconcatenate": 7952,
      "Ġworking": 7953,
      "Ġdirs": 7954,
      "Training": 7955,
      "rmtree": 7956,
      "KET": 7957,
      "Ġspawn": 7958,
      "anifest": 7959,
      "blknos": 7960,
      "Ġgateway": 7961,
      "Ġswap": 7962,
      "VIDEO": 7963,
      "digits": 7964,
      "Ġduplicate": 7965,
      "NUMB": 7966,
      "Dispatcher": 7967,
      "ä¸Ģä¸ª": 7968,
      "sensitive": 7969,
      "individuals": 7970,
      "Ġslicer": 7971,
      "ĠPOINTER": 7972,
      "Ġcsr": 7973,
      "ä¹°": 7974,
      "Ġhandling": 7975,
      "buffers": 7976,
      "yntaxError": 7977,
      "iprows": 7978,
      "({}": 7979,
      ")\\": 7980,
      "Cookie": 7981,
      "Dimension": 7982,
      "Features": 7983,
      "GL": 7984,
      "IX": 7985,
      "Ne": 7986,
      "Print": 7987,
      "Plugin": 7988,
      "RNN": 7989,
      "ftrs": 7990,
      "guilds": 7991,
      "hist": 7992,
      "mixed": 7993,
      "play": 7994,
      "plement": 7995,
      "rfc": 7996,
      "slot": 7997,
      "ugin": 7998,
      "ªĮ": 7999
    },
    "merges": [
      [
        "Ġ",
        "Ġ"
      ],
      [
        "ĠĠ",
        "ĠĠ"
      ],
      [
        "ĠĠĠĠ",
        "ĠĠĠĠ"
      ],
      [
        "ĠĠ",
        "Ġ"
      ],
      [
        "i",
        "n"
      ],
      [
        "Ċ",
        "ĠĠĠĠĠĠĠĠ"
      ],
      [
        "s",
        "e"
      ],
      [
        "o",
        "n"
      ],
      [
        "r",
        "e"
      ],
      [
        "ĠĠĠĠ",
        "ĠĠĠ"
      ],
      [
        "a",
        "t"
      ],
      [
        "d",
        "e"
      ],
      [
        "m",
        "e"
      ],
      [
        "Ċ",
        "ĠĠĠĠĠĠĠ"
      ],
      [
        "Ġ",
        "="
      ],
      [
        "o",
        "r"
      ],
      [
        "e",
        "r"
      ],
      [
        "s",
        "t"
      ],
      [
        "Ġ",
        "t"
      ],
      [
        "a",
        "r"
      ],
      [
        "a",
        "l"
      ],
      [
        "Ġ",
        "i"
      ],
      [
        "ĠĠĠĠĠĠĠĠ",
        "ĠĠĠĠĠĠĠĠ"
      ],
      [
        "e",
        "n"
      ],
      [
        "t",
        "i"
      ],
      [
        "Ġ",
        "n"
      ],
      [
        "ĊĠĠĠĠĠĠĠĠ",
        "ĠĠĠ"
      ],
      [
        "c",
        "o"
      ],
      [
        "a",
        "n"
      ],
      [
        "Ċ",
        "ĠĠĠ"
      ],
      [
        "l",
        "e"
      ],
      [
        "a",
        "me"
      ],
      [
        "se",
        "l"
      ],
      [
        "sel",
        "f"
      ],
      [
        "Ġ",
        "f"
      ],
      [
        "Ġ",
        "re"
      ],
      [
        "h",
        "e"
      ],
      [
        "ti",
        "on"
      ],
      [
        "u",
        "r"
      ],
      [
        "u",
        "n"
      ],
      [
        "Ġ",
        "in"
      ],
      [
        "p",
        "e"
      ],
      [
        "c",
        "e"
      ],
      [
        "Ġ",
        "p"
      ],
      [
        "Ġ",
        "a"
      ],
      [
        "u",
        "t"
      ],
      [
        "r",
        "o"
      ],
      [
        "Ġi",
        "f"
      ],
      [
        "l",
        "o"
      ],
      [
        "Ġ",
        "c"
      ],
      [
        "g",
        "e"
      ],
      [
        ")",
        ":"
      ],
      [
        "Ġ",
        "e"
      ],
      [
        "i",
        "t"
      ],
      [
        "Ġ",
        "s"
      ],
      [
        "r",
        "a"
      ],
      [
        "u",
        "e"
      ],
      [
        "Ġ",
        "self"
      ],
      [
        "in",
        "g"
      ],
      [
        "at",
        "e"
      ],
      [
        "c",
        "tion"
      ],
      [
        "Ġ",
        "#"
      ],
      [
        "Ġ",
        "d"
      ],
      [
        "Ġ",
        "o"
      ],
      [
        "l",
        "i"
      ],
      [
        "ur",
        "n"
      ],
      [
        "t",
        "urn"
      ],
      [
        "co",
        "de"
      ],
      [
        "l",
        "a"
      ],
      [
        "ĊĠĠĠĠĠĠĠĠ",
        "ĠĠĠĠĠĠĠ"
      ],
      [
        "c",
        "t"
      ],
      [
        "Ġn",
        "ame"
      ],
      [
        "de",
        "f"
      ],
      [
        "Ġre",
        "turn"
      ],
      [
        "Ġ",
        "b"
      ],
      [
        "v",
        "al"
      ],
      [
        "a",
        "m"
      ],
      [
        "s",
        "i"
      ],
      [
        "m",
        "a"
      ],
      [
        "Ġt",
        "he"
      ],
      [
        "o",
        "t"
      ],
      [
        "on",
        "e"
      ],
      [
        "y",
        "pe"
      ],
      [
        "ĊĠĠĠĠĠĠĠĠ",
        "ĠĠĠĠĠĠĠĠĠĠĠĠĠĠĠĠ"
      ],
      [
        "Ġ",
        "w"
      ],
      [
        "d",
        "i"
      ],
      [
        "at",
        "a"
      ],
      [
        "un",
        "ction"
      ],
      [
        "a",
        "d"
      ],
      [
        "c",
        "h"
      ],
      [
        ".",
        "_"
      ],
      [
        "an",
        "d"
      ],
      [
        "u",
        "m"
      ],
      [
        "Ġi",
        "s"
      ],
      [
        "f",
        "i"
      ],
      [
        "N",
        "one"
      ],
      [
        "p",
        "ar"
      ],
      [
        "Ġf",
        "or"
      ],
      [
        "f",
        "unction"
      ],
      [
        "ĊĠĠĠĠĠĠĠĠ",
        "ĠĠĠĠĠĠĠĠ"
      ],
      [
        "i",
        "d"
      ],
      [
        "r",
        "i"
      ],
      [
        "ge",
        "t"
      ],
      [
        "u",
        "l"
      ],
      [
        "c",
        "k"
      ],
      [
        "n",
        "ame"
      ],
      [
        "e",
        "d"
      ],
      [
        "(",
        ")"
      ],
      [
        "i",
        "s"
      ],
      [
        "Ġ",
        "m"
      ],
      [
        "n",
        "t"
      ],
      [
        "h",
        "a"
      ],
      [
        "e",
        "l"
      ],
      [
        "t",
        "h"
      ],
      [
        "Ċ",
        "Ġ"
      ],
      [
        "Ġt",
        "o"
      ],
      [
        "val",
        "ue"
      ],
      [
        "s",
        "s"
      ],
      [
        "e",
        "x"
      ],
      [
        "t",
        "ype"
      ],
      [
        "Ġ",
        "st"
      ],
      [
        "e",
        "s"
      ],
      [
        "k",
        "e"
      ],
      [
        ")",
        ")"
      ],
      [
        "p",
        "ut"
      ],
      [
        "at",
        "i"
      ],
      [
        "t",
        "er"
      ],
      [
        "ĠĠĠĠ",
        "Ġ"
      ],
      [
        "Ġ",
        "_"
      ],
      [
        "Ġ",
        "'"
      ],
      [
        "Ġn",
        "ot"
      ],
      [
        "t",
        "o"
      ],
      [
        "par",
        "am"
      ],
      [
        "l",
        "en"
      ],
      [
        "ar",
        "g"
      ],
      [
        "Ċ",
        "ĊĠĠĠĠĠĠĠ"
      ],
      [
        "Ġ",
        "("
      ],
      [
        "Ġ",
        "\""
      ],
      [
        "z",
        "e"
      ],
      [
        "at",
        "h"
      ],
      [
        "se",
        "t"
      ],
      [
        "Ġ",
        "["
      ],
      [
        "u",
        "p"
      ],
      [
        "Ġ",
        "co"
      ],
      [
        "Ġ",
        "h"
      ],
      [
        "c",
        "on"
      ],
      [
        "Ġ",
        "None"
      ],
      [
        "v",
        "er"
      ],
      [
        "o",
        "de"
      ],
      [
        "m",
        "p"
      ],
      [
        "param",
        "s"
      ],
      [
        "ati",
        "on"
      ],
      [
        "ĊĠĠĠĠĠĠĠĠĠĠĠĠĠĠĠĠĠĠĠĠĠĠĠĠ",
        "ĠĠĠĠĠĠĠĠĠĠĠĠĠĠĠĠ"
      ],
      [
        "re",
        "s"
      ],
      [
        "a",
        "b"
      ],
      [
        "Ġe",
        "x"
      ],
      [
        "t",
        "r"
      ],
      [
        "a",
        "s"
      ],
      [
        "en",
        "d"
      ],
      [
        "Ġ",
        "1"
      ],
      [
        "Ċ",
        "ĊĠĠĠ"
      ],
      [
        "ĊĠĠĠĠĠĠĠĠĠĠĠĠĠĠĠĠ",
        "ĠĠĠ"
      ],
      [
        "-",
        "-"
      ],
      [
        "Ġ",
        "and"
      ],
      [
        "t",
        "s"
      ],
      [
        "a",
        "p"
      ],
      [
        "or",
        "m"
      ],
      [
        "de",
        "x"
      ],
      [
        "v",
        "e"
      ],
      [
        "me",
        "nt"
      ],
      [
        "ha",
        "pe"
      ],
      [
        "p",
        "o"
      ],
      [
        "Ġe",
        "l"
      ],
      [
        "r",
        "or"
      ],
      [
        "al",
        "l"
      ],
      [
        "Ġel",
        "se"
      ],
      [
        "(",
        "\""
      ],
      [
        "Ġ",
        "g"
      ],
      [
        "Ġo",
        "f"
      ],
      [
        "Ċ",
        "ĠĠĠĠĠ"
      ],
      [
        "p",
        "ath"
      ],
      [
        "o",
        "l"
      ],
      [
        "Ġ",
        "T"
      ],
      [
        "d",
        "ata"
      ],
      [
        "Ġt",
        "f"
      ],
      [
        "Ġ",
        "+"
      ],
      [
        "i",
        "l"
      ],
      [
        "li",
        "st"
      ],
      [
        ")",
        ","
      ],
      [
        "e",
        "t"
      ],
      [
        "o",
        "d"
      ],
      [
        "arg",
        "s"
      ],
      [
        "si",
        "ze"
      ],
      [
        "q",
        "u"
      ],
      [
        "ul",
        "t"
      ],
      [
        "ex",
        "t"
      ],
      [
        "en",
        "t"
      ],
      [
        "Ġc",
        "on"
      ],
      [
        "it",
        "h"
      ],
      [
        "ke",
        "y"
      ],
      [
        "Ġ",
        "*"
      ],
      [
        "lo",
        "g"
      ],
      [
        "at",
        "ch"
      ],
      [
        "Ġ",
        "0"
      ],
      [
        "de",
        "r"
      ],
      [
        "'",
        ","
      ],
      [
        "Ġ=",
        "="
      ],
      [
        "la",
        "y"
      ],
      [
        "p",
        "er"
      ],
      [
        "in",
        "t"
      ],
      [
        "(",
        "'"
      ],
      [
        "ro",
        "m"
      ],
      [
        "i",
        "g"
      ],
      [
        "o",
        "ut"
      ],
      [
        "st",
        "r"
      ],
      [
        "Ġre",
        "s"
      ],
      [
        "p",
        "ro"
      ],
      [
        "or",
        "t"
      ],
      [
        "ab",
        "le"
      ],
      [
        "se",
        "r"
      ],
      [
        "Ġt",
        "h"
      ],
      [
        "si",
        "on"
      ],
      [
        "ti",
        "me"
      ],
      [
        "Ġ",
        "-"
      ],
      [
        "f",
        "orm"
      ],
      [
        "Ġ",
        "me"
      ],
      [
        "Ġd",
        "ata"
      ],
      [
        "Ġ",
        "ma"
      ],
      [
        "ra",
        "y"
      ],
      [
        "i",
        "se"
      ],
      [
        "an",
        "ce"
      ],
      [
        "lay",
        "er"
      ],
      [
        "o",
        "p"
      ],
      [
        "r",
        "ror"
      ],
      [
        "]",
        ","
      ],
      [
        "Ġ",
        "or"
      ],
      [
        "d",
        "ate"
      ],
      [
        "E",
        "rror"
      ],
      [
        "Ġa",
        "s"
      ],
      [
        "Ġ",
        "r"
      ],
      [
        "c",
        "he"
      ],
      [
        "\"",
        ","
      ],
      [
        "Ġh",
        "params"
      ],
      [
        "Ġ",
        "de"
      ],
      [
        "e",
        "w"
      ],
      [
        "b",
        "j"
      ],
      [
        "Ġ",
        "value"
      ],
      [
        "t",
        "e"
      ],
      [
        "ĊĠĠĠĠĠĠĠĠĠĠĠ",
        "ĊĠĠĠĠĠĠĠ"
      ],
      [
        "la",
        "b"
      ],
      [
        "s",
        "hape"
      ],
      [
        "f",
        "o"
      ],
      [
        "v",
        "i"
      ],
      [
        "d",
        "s"
      ],
      [
        "Ġ",
        ":"
      ],
      [
        "Ġ",
        ")"
      ],
      [
        "Ġ",
        "ra"
      ],
      [
        "Ġp",
        "ar"
      ],
      [
        "e",
        "ct"
      ],
      [
        "ode",
        "l"
      ],
      [
        "Ġ",
        "x"
      ],
      [
        "]",
        ")"
      ],
      [
        "Ġ",
        "len"
      ],
      [
        "st",
        "ance"
      ],
      [
        "m",
        "b"
      ],
      [
        "ĊĠĠĠĠĠĠĠĠĠĠĠĠĠĠĠĠĠĠĠĠĠĠĠĠĠĠĠĠĠĠĠĠĠĠĠĠĠĠĠĠ",
        "ĠĠĠĠĠĠĠĠĠĠĠĠĠĠĠĠ"
      ],
      [
        "in",
        "dex"
      ],
      [
        "fi",
        "le"
      ],
      [
        "r",
        "ue"
      ],
      [
        "Ġf",
        "i"
      ],
      [
        "c",
        "al"
      ],
      [
        "p",
        "l"
      ],
      [
        "a",
        "ck"
      ],
      [
        "Ġ",
        "{"
      ],
      [
        "ra",
        "in"
      ],
      [
        "Ġra",
        "ise"
      ],
      [
        "'",
        ")"
      ],
      [
        "an",
        "s"
      ],
      [
        "Ġ",
        "%"
      ],
      [
        "R",
        "e"
      ],
      [
        "Ġw",
        "ith"
      ],
      [
        "Ġb",
        "e"
      ],
      [
        "al",
        "se"
      ],
      [
        "p",
        "re"
      ],
      [
        "l",
        "in"
      ],
      [
        "i",
        "st"
      ],
      [
        "Ġ",
        "S"
      ],
      [
        "a",
        "ge"
      ],
      [
        "F",
        "alse"
      ],
      [
        "Ġn",
        "um"
      ],
      [
        "Ġ",
        "u"
      ],
      [
        "it",
        "e"
      ],
      [
        "t",
        "ri"
      ],
      [
        "lab",
        "el"
      ],
      [
        "ce",
        "p"
      ],
      [
        "a",
        "se"
      ],
      [
        "ad",
        "d"
      ],
      [
        "Ġ",
        "se"
      ],
      [
        "e",
        "p"
      ],
      [
        "Ġp",
        "ro"
      ],
      [
        "Ġ",
        "en"
      ],
      [
        "co",
        "l"
      ],
      [
        "q",
        "ue"
      ],
      [
        "t",
        "en"
      ],
      [
        "Ġst",
        "r"
      ],
      [
        "o",
        "w"
      ],
      [
        "m",
        "s"
      ],
      [
        "n",
        "um"
      ],
      [
        "p",
        "end"
      ],
      [
        "k",
        "w"
      ],
      [
        "\"",
        ")"
      ],
      [
        "ar",
        "ray"
      ],
      [
        "x",
        "is"
      ],
      [
        "p",
        "y"
      ],
      [
        "Ġt",
        "r"
      ],
      [
        "in",
        "stance"
      ],
      [
        "h",
        "t"
      ],
      [
        "u",
        "re"
      ],
      [
        "Ġ",
        "v"
      ],
      [
        "ar",
        "t"
      ],
      [
        "ce",
        "s"
      ],
      [
        "form",
        "at"
      ],
      [
        "Ġf",
        "rom"
      ],
      [
        "am",
        "p"
      ],
      [
        "Ġ",
        "get"
      ],
      [
        "Ġw",
        "e"
      ],
      [
        "i",
        "z"
      ],
      [
        "Ġ",
        "def"
      ],
      [
        "f",
        "f"
      ],
      [
        "Ġo",
        "ut"
      ],
      [
        "ap",
        "pend"
      ],
      [
        "Ġn",
        "p"
      ],
      [
        "kw",
        "args"
      ],
      [
        "i",
        "me"
      ],
      [
        "t",
        "a"
      ],
      [
        "[",
        "'"
      ],
      [
        "l",
        "s"
      ],
      [
        "in",
        "fo"
      ],
      [
        "ĊĠĠĠĠĠĠĠĠĠĠĠĠĠĠĠĠĠĠĠĠĠĠĠĠ",
        "ĠĠĠĠĠĠĠĠ"
      ],
      [
        "put",
        "s"
      ],
      [
        "li",
        "f"
      ],
      [
        "um",
        "n"
      ],
      [
        "o",
        "ur"
      ],
      [
        "fi",
        "g"
      ],
      [
        "u",
        "b"
      ],
      [
        "Ġ",
        "lo"
      ],
      [
        "ĊĠĠĠĠĠĠĠ",
        "ĊĠĠĠ"
      ],
      [
        "an",
        "ge"
      ],
      [
        "ĊĠĠĠĠĠĠĠĠĠĠĠĠĠĠĠĠ",
        "ĠĠĠĠĠĠĠ"
      ],
      [
        "Ġp",
        "re"
      ],
      [
        "Ġis",
        "instance"
      ],
      [
        "ma",
        "ge"
      ],
      [
        "p",
        "a"
      ],
      [
        "s",
        "k"
      ],
      [
        "Ġn",
        "ew"
      ],
      [
        "Ġe",
        "lif"
      ],
      [
        "Ġ",
        "an"
      ],
      [
        "Ġ",
        "C"
      ],
      [
        "o",
        "c"
      ],
      [
        "--",
        "--"
      ],
      [
        "Ġ",
        "D"
      ],
      [
        "at",
        "or"
      ],
      [
        "b",
        "u"
      ],
      [
        "ct",
        "or"
      ],
      [
        "m",
        "m"
      ],
      [
        "Ġ",
        "I"
      ],
      [
        "Ġd",
        "i"
      ],
      [
        "b",
        "o"
      ],
      [
        "g",
        "th"
      ],
      [
        "de",
        "n"
      ],
      [
        "d",
        "type"
      ],
      [
        "Ġ",
        "on"
      ],
      [
        "ĠĠĠĠ",
        "ĠĠ"
      ],
      [
        "th",
        "od"
      ],
      [
        "c",
        "a"
      ],
      [
        "k",
        "en"
      ],
      [
        "Ġ",
        "A"
      ],
      [
        "l",
        "y"
      ],
      [
        "Ġ",
        "P"
      ],
      [
        "di",
        "ct"
      ],
      [
        "'",
        "]"
      ],
      [
        "Ġ",
        "log"
      ],
      [
        "di",
        "r"
      ],
      [
        "Ġ",
        "2"
      ],
      [
        "value",
        "s"
      ],
      [
        "lo",
        "ck"
      ],
      [
        "r",
        "ame"
      ],
      [
        "at",
        "tr"
      ],
      [
        "i",
        "p"
      ],
      [
        "pl",
        "it"
      ],
      [
        "u",
        "st"
      ],
      [
        "Ġco",
        "l"
      ],
      [
        "[",
        "\""
      ],
      [
        "re",
        "d"
      ],
      [
        "amp",
        "le"
      ],
      [
        "ar",
        "get"
      ],
      [
        "Ġ",
        "ha"
      ],
      [
        "d",
        "ing"
      ],
      [
        "s",
        "h"
      ],
      [
        "Ġ",
        "`"
      ],
      [
        "re",
        "nt"
      ],
      [
        "Ġ",
        "y"
      ],
      [
        "t",
        "ext"
      ],
      [
        "ro",
        "w"
      ],
      [
        "g",
        "er"
      ],
      [
        "que",
        "st"
      ],
      [
        "Ġ",
        "key"
      ],
      [
        "=",
        "'"
      ],
      [
        "Ġ",
        "k"
      ],
      [
        "0",
        "0"
      ],
      [
        "ma",
        "x"
      ],
      [
        "ce",
        "ss"
      ],
      [
        "j",
        "o"
      ],
      [
        "re",
        "ate"
      ],
      [
        "Ġo",
        "p"
      ],
      [
        "Ġ",
        "list"
      ],
      [
        "b",
        "atch"
      ],
      [
        "i",
        "ze"
      ],
      [
        "m",
        "in"
      ],
      [
        "s",
        "or"
      ],
      [
        "lin",
        "e"
      ],
      [
        "o",
        "bj"
      ],
      [
        "lo",
        "at"
      ],
      [
        "val",
        "id"
      ],
      [
        "Ġres",
        "ult"
      ],
      [
        "in",
        "d"
      ],
      [
        "Ġt",
        "ype"
      ],
      [
        "a",
        "ult"
      ],
      [
        "V",
        "al"
      ],
      [
        "ar",
        "y"
      ],
      [
        "Ġex",
        "cep"
      ],
      [
        "lo",
        "w"
      ],
      [
        "ar",
        "n"
      ],
      [
        "Ġ",
        "he"
      ],
      [
        "m",
        "o"
      ],
      [
        "ra",
        "p"
      ],
      [
        "T",
        "rue"
      ],
      [
        "our",
        "ce"
      ],
      [
        "Ġt",
        "ime"
      ],
      [
        "c",
        "i"
      ],
      [
        "a",
        "der"
      ],
      [
        "c",
        "s"
      ],
      [
        "layer",
        "s"
      ],
      [
        "u",
        "s"
      ],
      [
        "li",
        "ent"
      ],
      [
        "_",
        "_"
      ],
      [
        "\"",
        "]"
      ],
      [
        "Ġo",
        "bj"
      ],
      [
        "f",
        "rom"
      ],
      [
        "ro",
        "up"
      ],
      [
        "Val",
        "ue"
      ],
      [
        "Ġa",
        "xis"
      ],
      [
        "at",
        "ten"
      ],
      [
        "d",
        "a"
      ],
      [
        "w",
        "or"
      ],
      [
        "e",
        "at"
      ],
      [
        "Ġtr",
        "y"
      ],
      [
        "f",
        "or"
      ],
      [
        "Ġ*",
        "*"
      ],
      [
        "o",
        "m"
      ],
      [
        "ur",
        "l"
      ],
      [
        "t",
        "rain"
      ],
      [
        "Ċ",
        "ĊĠĠĠĠĠĠĠĠĠĠĠ"
      ],
      [
        "o",
        "s"
      ],
      [
        "la",
        "ss"
      ],
      [
        "Ġ",
        "al"
      ],
      [
        "Ġth",
        "at"
      ],
      [
        "Ġ",
        ">"
      ],
      [
        "se",
        "d"
      ],
      [
        "st",
        "ate"
      ],
      [
        "se",
        "s"
      ],
      [
        "ap",
        "i"
      ],
      [
        "Ġ[",
        "]"
      ],
      [
        "'",
        ":"
      ],
      [
        "Ġd",
        "type"
      ],
      [
        "u",
        "le"
      ],
      [
        "ar",
        "d"
      ],
      [
        "tion",
        "s"
      ],
      [
        "Ġw",
        "h"
      ],
      [
        "m",
        "odel"
      ],
      [
        "un",
        "c"
      ],
      [
        "ti",
        "al"
      ],
      [
        "E",
        "x"
      ],
      [
        "Ġ",
        "N"
      ],
      [
        "ar",
        "i"
      ],
      [
        "i",
        "m"
      ],
      [
        "t",
        "y"
      ],
      [
        "er",
        "y"
      ],
      [
        "it",
        "er"
      ],
      [
        "name",
        "s"
      ],
      [
        "Ġc",
        "h"
      ],
      [
        "v",
        "el"
      ],
      [
        "Ġfi",
        "le"
      ],
      [
        "er",
        "ror"
      ],
      [
        "Ġexcep",
        "t"
      ],
      [
        "en",
        "er"
      ],
      [
        "Ġ",
        "l"
      ],
      [
        "n",
        "el"
      ],
      [
        "(",
        "):"
      ],
      [
        "Ġin",
        "dex"
      ],
      [
        ")",
        "."
      ],
      [
        "Ġm",
        "odel"
      ],
      [
        "Ġth",
        "is"
      ],
      [
        "len",
        "gth"
      ],
      [
        "Ġ",
        "set"
      ],
      [
        "con",
        "fig"
      ],
      [
        "f",
        "t"
      ],
      [
        "ment",
        "s"
      ],
      [
        "ser",
        "t"
      ],
      [
        "ame",
        "ter"
      ],
      [
        "s",
        "c"
      ],
      [
        "un",
        "t"
      ],
      [
        "l",
        "l"
      ],
      [
        "Value",
        "Error"
      ],
      [
        "p",
        "ort"
      ],
      [
        "Ġ",
        "le"
      ],
      [
        "Ġa",
        "d"
      ],
      [
        "C",
        "on"
      ],
      [
        "t",
        "f"
      ],
      [
        "Ġ",
        "un"
      ],
      [
        "iz",
        "er"
      ],
      [
        "lo",
        "ad"
      ],
      [
        "el",
        "d"
      ],
      [
        "re",
        "ad"
      ],
      [
        "Ġvalue",
        "s"
      ],
      [
        "c",
        "ur"
      ],
      [
        "it",
        "y"
      ],
      [
        "ĠT",
        "rue"
      ],
      [
        "Ġma",
        "x"
      ],
      [
        "o",
        "re"
      ],
      [
        "t",
        "ra"
      ],
      [
        "up",
        "date"
      ],
      [
        "Ġo",
        "s"
      ],
      [
        "Ġ",
        "ValueError"
      ],
      [
        "b",
        "y"
      ],
      [
        "I",
        "n"
      ],
      [
        "Ġs",
        "h"
      ],
      [
        "ĊĠĠĠĠĠĠĠĠĠĠĠĠĠĠĠĠĠĠĠĠĠĠĠĠĠĠĠĠĠĠĠĠĠĠĠĠĠĠĠĠĠĠĠĠĠĠĠĠĠĠĠĠĠĠĠĠ",
        "ĠĠĠĠĠĠĠĠĠĠĠĠĠĠĠĠ"
      ],
      [
        "Ġ",
        "all"
      ],
      [
        "ig",
        "ht"
      ],
      [
        "Ġp",
        "ath"
      ],
      [
        "ĊĠĠĠĠĠĠĠĠ",
        "Ġ"
      ],
      [
        "tr",
        "y"
      ],
      [
        "p",
        "on"
      ],
      [
        "\"",
        ":"
      ],
      [
        "l",
        "u"
      ],
      [
        "Ġ",
        "label"
      ],
      [
        "ver",
        "sion"
      ],
      [
        "Ġ",
        "M"
      ],
      [
        "Ġb",
        "y"
      ],
      [
        "Ġp",
        "a"
      ],
      [
        "ul",
        "ti"
      ],
      [
        "o",
        "o"
      ],
      [
        "=",
        "\""
      ],
      [
        "umn",
        "s"
      ],
      [
        "jo",
        "in"
      ],
      [
        "de",
        "d"
      ],
      [
        "ad",
        "ata"
      ],
      [
        "g",
        "ra"
      ],
      [
        "p",
        "la"
      ],
      [
        "s",
        "plit"
      ],
      [
        "k",
        "er"
      ],
      [
        "w",
        "e"
      ],
      [
        "me",
        "r"
      ],
      [
        "atten",
        "tion"
      ],
      [
        "ver",
        "t"
      ],
      [
        "Ġ",
        "/"
      ],
      [
        "ri",
        "p"
      ],
      [
        "st",
        "art"
      ],
      [
        "li",
        "c"
      ],
      [
        "qu",
        "ery"
      ],
      [
        "c",
        "all"
      ],
      [
        "s",
        "y"
      ],
      [
        "he",
        "ck"
      ],
      [
        "Ġin",
        "t"
      ],
      [
        "t",
        "adata"
      ],
      [
        "a",
        "c"
      ],
      [
        "Ġ",
        "<"
      ],
      [
        "fi",
        "x"
      ],
      [
        "ĊĠĠĠĠĠĠĠĠĠĠĠĠĠĠĠĠĠĠĠĠĠĠĠĠĠĠĠĠĠĠĠĠĠĠĠĠĠĠĠĠ",
        "ĠĠĠĠĠĠĠĠ"
      ],
      [
        "r",
        "ite"
      ],
      [
        "or",
        "y"
      ],
      [
        "str",
        "ing"
      ],
      [
        "Ġ",
        "L"
      ],
      [
        "Re",
        "turn"
      ],
      [
        "]",
        "."
      ],
      [
        "s",
        "um"
      ],
      [
        "Ġi",
        "t"
      ],
      [
        "i",
        "es"
      ],
      [
        "i",
        "le"
      ],
      [
        "Ġ",
        "j"
      ],
      [
        "f",
        "loat"
      ],
      [
        "Ċ",
        "ĊĠ"
      ],
      [
        "Ġ",
        "W"
      ],
      [
        "Ġ",
        "."
      ],
      [
        "Ġ",
        "B"
      ],
      [
        "Ġa",
        "re"
      ],
      [
        "[",
        ":"
      ],
      [
        "ction",
        "s"
      ],
      [
        "code",
        "r"
      ],
      [
        "th",
        "er"
      ],
      [
        "Ġco",
        "mm"
      ],
      [
        "un",
        "d"
      ],
      [
        "to",
        "ken"
      ],
      [
        "Ġout",
        "put"
      ],
      [
        "m",
        "at"
      ],
      [
        "Ġ{",
        "}"
      ],
      [
        "ma",
[...]
